node {
  name: "global_step"
  op: "Variable"
  attr {
    key: "_output_shapes"
    value {
      list {
        shape {
        }
      }
    }
  }
  attr {
    key: "container"
    value {
      s: ""
    }
  }
  attr {
    key: "dtype"
    value {
      type: DT_INT64
    }
  }
  attr {
    key: "shape"
    value {
      shape {
      }
    }
  }
  attr {
    key: "shared_name"
    value {
      s: ""
    }
  }
}
node {
  name: "global_step/Initializer/zeros"
  op: "Const"
  attr {
    key: "_class"
    value {
      list {
        s: "loc:@global_step"
      }
    }
  }
  attr {
    key: "_output_shapes"
    value {
      list {
        shape {
        }
      }
    }
  }
  attr {
    key: "dtype"
    value {
      type: DT_INT64
    }
  }
  attr {
    key: "value"
    value {
      tensor {
        dtype: DT_INT64
        tensor_shape {
        }
        int64_val: 0
      }
    }
  }
}
node {
  name: "global_step/Assign"
  op: "Assign"
  input: "global_step"
  input: "global_step/Initializer/zeros"
  attr {
    key: "T"
    value {
      type: DT_INT64
    }
  }
  attr {
    key: "_class"
    value {
      list {
        s: "loc:@global_step"
      }
    }
  }
  attr {
    key: "_output_shapes"
    value {
      list {
        shape {
        }
      }
    }
  }
  attr {
    key: "use_locking"
    value {
      b: true
    }
  }
  attr {
    key: "validate_shape"
    value {
      b: true
    }
  }
}
node {
  name: "global_step/read"
  op: "Identity"
  input: "global_step"
  attr {
    key: "T"
    value {
      type: DT_INT64
    }
  }
  attr {
    key: "_class"
    value {
      list {
        s: "loc:@global_step"
      }
    }
  }
  attr {
    key: "_output_shapes"
    value {
      list {
        shape {
        }
      }
    }
  }
}
node {
  name: "Const"
  op: "Const"
  attr {
    key: "_output_shapes"
    value {
      list {
        shape {
          dim {
            size: 2455
          }
        }
      }
    }
  }
  attr {
    key: "dtype"
    value {
      type: DT_FLOAT
    }
  }
  attr {
    key: "value"
    value {
      tensor {
        dtype: DT_FLOAT
        tensor_shape {
          dim {
            size: 2455
          }
        }
        tensor_content: "\000\000\000@\000\000\200@\000\000@A\000\000@@\000\000\200@\000\000@@\000\000\000@\000\000\240@\000\000\200@\000\000@@\000\000\000@\000\000\200@\000\000@@\000\000@@\000\000\200?\000\000\200@\000\000@@\000\000@@\000\000\200@\000\000@@\000\000\000@\000\000\000@\000\000\000@\000\000\200@\000\000@@\000\000\200@\000\000\240@\000\000\200?\000\000@@\000\000@@\000\000@@\000\000\000@\000\000\200@\000\000@@\000\000@@\000\000\240@\000\000@@\000\000@@\000\000\000@\000\000\000@\000\000\000@\000\000\000@\000\000@@\000\000\000@\000\000\240@\000\000@@\000\000@@\000\000\200@\000\000@@\000\000\000\000\000\000\200@\000\000\000@\000\000@@\000\000\000@\000\000\200@\000\000@@\000\000\200@\000\000\300@\000\000\000@\000\000@@\000\000@@\000\000\340@\000\000\200@\000\000\000@\000\000\000@\000\000\000@\000\000\200@\000\000\000@\000\000@@\000\000\200@\000\000\000@\000\000\200@\000\000\000@\000\000@@\000\000\200@\000\000@@\000\000@@\000\000\240@\000\000\200@\000\000\240@\000\000\200@\000\000\200@\000\000\200@\000\000\000A\000\000\200?\000\000\200?\000\000\000@\000\000\200@\000\000\200?\000\000\200@\000\000\200@\000\000\200@\000\000\240@\000\000\240@\000\000\000@\000\000@@\000\000\000@\000\000@@\000\000\300@\000\000\200@\000\000\240@\000\000@@\000\000\200@\000\000\200@\000\000\240@\000\000@@\000\000@@\000\000\200@\000\000\200@\000\000@@\000\000\000@\000\000@@\000\000\240@\000\000@@\000\000@@\000\000\000@\000\000\300@\000\000\000@\000\000@@\000\000@@\000\000\240@\000\000@@\000\000\240@\000\000@@\000\000\200@\000\000\000@\000\000@@\000\000\200@\000\000@@\000\000@@\000\000@@\000\000@@\000\000\200@\000\000\200@\000\000\200@\000\000@@\000\000\240@\000\000@@\000\000@@\000\000\200@\000\000\020A\000\000\000@\000\000\300@\000\000\240@\000\000\240@\000\000\200@\000\000\240@\000\000@@\000\000\200@\000\000@@\000\000@@\000\000\000@\000\000\000@\000\000\240@\000\000\200@\000\000\200@\000\000\240@\000\000\000@\000\000@@\000\000@@\000\000\200@\000\000\200@\000\000\300@\000\000@@\000\000@@\000\000@@\000\000\000@\000\000\000@\000\000\000@\000\000\200@\000\000\200@\000\000@@\000\000@@\000\000@@\000\000@@\000\000\000@\000\000\000@\000\000@@\000\000\300@\000\000\240@\000\000@@\000\000\200@\000\000@@\000\000\000@\000\000@@\000\000@@\000\000\200@\000\000\000@\000\000\000\000\000\000@@\000\000\240@\000\000\240@\000\000\200@\000\000\000@\000\000\000@\000\000\000@\000\000\000@\000\000\200@\000\000\000@\000\000\200@\000\000\240@\000\000\000@\000\000\200@\000\000\200@\000\000\240@\000\000\200@\000\000\200@\000\000@@\000\000\000@\000\000@@\000\000@@\000\000@@\000\000\000@\000\000\200@\000\000\000@\000\000\000@\000\000\300@\000\000\240@\000\000\200@\000\000\200@\000\000\200@\000\000@@\000\000\200@\000\000\000@\000\000\200@\000\000@@\000\000\200@\000\000@@\000\000\240@\000\000\240@\000\000\000@\000\000@@\000\000\200@\000\000@@\000\000\200@\000\000\000@\000\000\000@\000\000\000\000\000\000@@\000\000\000@\000\000@@\000\000\240@\000\000@@\000\000@@\000\000@@\000\000\000\000\000\000\000\000\000\000@@\000\000\200@\000\000@@\000\000@@\000\000@@\000\000\340@\000\000@@\000\000\000@\000\000@@\000\000@@\000\000\000@\000\000@@\000\000@@\000\000\000@\000\000@@\000\000@@\000\000@@\000\000\200@\000\000@@\000\000@@\000\000@@\000\000\000@\000\000\240@\000\000@@\000\000@@\000\000\240@\000\000\200@\000\000@@\000\000\000\000\000\000\240@\000\000@@\000\000\000@\000\000\000@\000\000\240@\000\000\200@\000\000@@\000\000\000@\000\000@@\000\000@@\000\000\000@\000\000\240@\000\000\200@\000\000@@\000\000@@\000\000@@\000\000@@\000\000\200@\000\000@@\000\000\200?\000\000\000@\000\000\200@\000\000@@\000\000\000@\000\000\200@\000\000\000@\000\000\240@\000\000\200@\000\000@@\000\000\000@\000\000\340@\000\000\200@\000\000\200@\000\000\200@\000\000@@\000\000\000@\000\000\000@\000\000\240@\000\000@@\000\000@@\000\000\240@\000\000\200@\000\000\000@\000\000\200@\000\000\200@\000\000\000@\000\000\200@\000\000\240@\000\000\240@\000\000\000@\000\000\240@\000\000@@\000\000\200@\000\000\000@\000\000@@\000\000\200@\000\000\200?\000\000@@\000\000@@\000\000\000@\000\000\000@\000\000@@\000\000\200@\000\000@@\000\000\200@\000\000@@\000\000\000@\000\000@@\000\000\200@\000\000\200@\000\000\240@\000\000@@\000\000@@\000\000@@\000\000\200@\000\000\240@\000\000@@\000\000\000@\000\000@@\000\000\200@\000\000\200@\000\000@@\000\000\240@\000\000\300@\000\000\000@\000\000@@\000\000\000@\000\000\200@\000\000@@\000\000\240@\000\000@@\000\000\200@\000\000\000@\000\000@@\000\000@@\000\000\200@\000\000\200?\000\000\300@\000\000\240@\000\000\200@\000\000\200@\000\000\240@\000\000@@\000\000\200@\000\000@@\000\000\200@\000\000\240@\000\000\000@\000\000\240@\000\000\200?\000\000\000@\000\000@@\000\000\200@\000\000\000@\000\000\000@\000\000\200@\000\000\000@\000\000\200@\000\000\000@\000\000@@\000\000\240@\000\000\200@\000\000@@\000\000\000@\000\000\200@\000\000\000@\000\000\000@\000\000\000\000\000\000\000@\000\000@@\000\000\200@\000\000\000@\000\000\200@\000\000@@\000\000@@\000\000\000@\000\000\300@\000\000\200@\000\000@@\000\000@@\000\000\200@\000\000\000@\000\000\200@\000\000\200@\000\000\200@\000\000\000@\000\000@@\000\000@@\000\000\200@\000\000\200?\000\000\000@\000\000\200@\000\000@@\000\000@@\000\000@@\000\000\240@\000\000\200@\000\000@@\000\000\240@\000\000\000@\000\000@@\000\000@@\000\000\200?\000\000\000@\000\000\000@\000\000@@\000\000\000@\000\000@@\000\000@@\000\000@@\000\000\300@\000\000@@\000\000@@\000\000@@\000\000\000@\000\000@@\000\000@@\000\000\020A\000\000\000@\000\000\200@\000\000@@\000\000\300@\000\000@@\000\000\000@\000\000\000@\000\000@@\000\000\000@\000\000\240@\000\000\240@\000\000\000@\000\000@@\000\000\240@\000\000@@\000\000\200@\000\000\000@\000\000\000@\000\000\200@\000\000\000@\000\000\240@\000\000@@\000\000\240@\000\000\000\000\000\000@@\000\000\200@\000\000\000@\000\000\200@\000\000\000@\000\000\000@\000\000@@\000\000\240@\000\000\200@\000\000\000@\000\000\200?\000\000\000@\000\000\000@\000\000@@\000\000\240@\000\000@@\000\000@@\000\000\000@\000\000\000@\000\000\200?\000\000\000@\000\000\000@\000\000@@\000\000@@\000\000\000A\000\000@@\000\000\000@\000\000\000@\000\000@@\000\000\200@\000\000\000@\000\000@@\000\000\000@\000\000\240@\000\000\000@\000\000@@\000\000\200@\000\000\200@\000\000\200@\000\000\200@\000\000\200@\000\000@@\000\000\300@\000\000\200@\000\000\200@\000\000@@\000\000@@\000\000\000@\000\000\200?\000\000\200@\000\000\000A\000\000\240@\000\000@@\000\000\000@\000\000\200@\000\000\000@\000\000@@\000\000\000@\000\000@@\000\000@@\000\000\300@\000\000\200@\000\000@@\000\000\240@\000\000@@\000\000\000@\000\000\000@\000\000\240@\000\000\000@\000\000\200?\000\000\000@\000\000\200@\000\000@@\000\000@@\000\000@@\000\000\200@\000\000\000@\000\000\000@\000\000\000@\000\000@@\000\000\240@\000\000\000@\000\000\240@\000\000\000@\000\000\240@\000\000@@\000\000@@\000\000\000@\000\000\000@\000\000@@\000\000@@\000\000\000@\000\000@@\000\000\000@\000\000\000\000\000\000@@\000\000@@\000\000\000@\000\000\200@\000\000@@\000\000\000@\000\000\200@\000\000\200@\000\000\000@\000\000\000@\000\000@@\000\000\200@\000\000\000@\000\000@@\000\000\000@\000\000@@\000\000\000@\000\000\000@\000\000\000@\000\000@@\000\000@@\000\000@@\000\000@@\000\000\000@\000\000\000@\000\000\000@\000\000\200@\000\000\000@\000\000@@\000\000@@\000\000\000@\000\000\240@\000\000@@\000\000\200@\000\000\200@\000\000@@\000\000\200@\000\000\200@\000\000@@\000\000@@\000\000@@\000\000\200@\000\000@@\000\000@@\000\000\000@\000\000@@\000\000@@\000\000@@\000\000`A\000\000\200?\000\000\000@\000\000\000@\000\000\200@\000\000@@\000\000\200@\000\000@@\000\000\000@\000\000\300@\000\000\200@\000\000\240@\000\000\240@\000\000@@\000\000\000@\000\000\200@\000\000\000@\000\000\200@\000\000\240@\000\000\200@\000\000\240@\000\000\000@\000\000\000@\000\000\200@\000\000\240@\000\000\200@\000\000\000@\000\000\200@\000\000\200@\000\000\000@\000\000\200@\000\000\000@\000\000\200@\000\000@@\000\000@@\000\000\200@\000\000@@\000\000\200@\000\000\200@\000\000\200?\000\000\200@\000\000\340@\000\000@@\000\000@@\000\000\200@\000\000\200@\000\000\000@\000\000\000@\000\000@@\000\000\240@\000\000\000\000\000\000\200?\000\000\200@\000\000@@\000\000\000@\000\000\000@\000\000\200?\000\000@@\000\000\240@\000\000\200@\000\000@@\000\000@@\000\000\200@\000\000\000@\000\000@@\000\000@@\000\000\240@\000\000\000@\000\000@@\000\000@@\000\000@@\000\000@@\000\000\200@\000\000\200@\000\000\000\000\000\000\000@\000\000@@\000\000\240@\000\000@@\000\000@@\000\000\000@\000\000@@\000\000\000@\000\000@@\000\000\200@\000\000@@\000\000\000@\000\000@@\000\000\200@\000\000\000@\000\000\200@\000\000\240@\000\000@@\000\000\000@\000\000@@\000\000\200@\000\000\000@\000\000@@\000\000\240@\000\000@@\000\000@@\000\000@@\000\000\240@\000\000\200@\000\000\200@\000\000\000@\000\000\240@\000\000@@\000\000\240@\000\000\000@\000\000\200@\000\000\000@\000\000@@\000\000\200@\000\000\200@\000\000@@\000\000\200@\000\000@@\000\000\200@\000\000@@\000\000\200@\000\000@@\000\000\000@\000\000@@\000\000\000@\000\000`A\000\000\200@\000\000\200@\000\000\000@\000\000\000@\000\000\000\000\000\000\200@\000\000\200@\000\000\240@\000\000@@\000\000\240@\000\000\200@\000\000\200@\000\000\200@\000\000@@\000\000@@\000\000\000@\000\000\200@\000\000\200@\000\000@@\000\000@@\000\000\200@\000\000@@\000\000\200@\000\000\200@\000\000\000@\000\000\240@\000\000@@\000\000\200@\000\000@@\000\000\200@\000\000\200@\000\000\240@\000\000@@\000\000\200?\000\000@@\000\000\000@\000\000\000@\000\000\200@\000\000\200@\000\000\200?\000\000@@\000\000\000@\000\000\000@\000\000\200@\000\000@@\000\000\200@\000\000\000@\000\000\240@\000\000@@\000\000\200?\000\000\000@\000\000@@\000\000\000@\000\000\200?\000\000@@\000\000@@\000\000@@\000\000\200@\000\000@@\000\000@@\000\000@@\000\000\200?\000\000\000@\000\000\200@\000\000\200@\000\000\240@\000\000@@\000\000@@\000\000@@\000\000\000@\000\000@@\000\000\240@\000\000\200@\000\000@@\000\000@@\000\000\000@\000\000@@\000\000\200@\000\000\200@\000\000@@\000\000\000@\000\000\000@\000\000@@\000\000\200@\000\000@@\000\000\000@\000\000@@\000\000\000@\000\000\200@\000\000\240@\000\000@@\000\000\200@\000\000\200@\000\000\000@\000\000\240@\000\000\000@\000\000@@\000\000\240@\000\000\200@\000\000@@\000\000\000@\000\000@@\000\000\200?\000\000\200@\000\000\240@\000\000\200@\000\000@@\000\000\240@\000\000@@\000\000@@\000\000\200@\000\000@@\000\000\200@\000\000\200@\000\000\200@\000\000@@\000\000\340@\000\000@@\000\000\200@\000\000@@\000\000@@\000\000\200@\000\000@@\000\000@@\000\000\240@\000\000\240@\000\000\240@\000\000\000@\000\000\000@\000\000\000@\000\000@@\000\000\200@\000\000\240@\000\000@@\000\000@@\000\000@@\000\000\200@\000\000\200@\000\000\200@\000\000\240@\000\000\240@\000\000\000@\000\000\240@\000\000\300@\000\000\000@\000\000\200@\000\000@@\000\000\200@\000\000\300@\000\000@@\000\000\240@\000\000\300@\000\000\200@\000\000@@\000\000@@\000\000@@\000\000\200@\000\000\200?\000\000@@\000\000\240@\000\000\200@\000\000\200@\000\000@@\000\000\000@\000\000@@\000\000\200@\000\000\200@\000\000@@\000\000\200@\000\000\000@\000\000@@\000\000\000@\000\000\200@\000\000\000@\000\000\300@\000\000@@\000\000\200@\000\000\000@\000\000@@\000\000@@\000\000\200@\000\000\000@\000\000\000@\000\000@@\000\000@@\000\000@@\000\000\200?\000\000\000@\000\000\240@\000\000@@\000\000@@\000\000\200?\000\000@@\000\000@@\000\000\300@\000\000@@\000\000\200@\000\000\000@\000\000\200@\000\000\000@\000\000\000@\000\000\000@\000\000\000\000\000\000\000@\000\000@@\000\000\200?\000\000\200@\000\000@@\000\000\240@\000\000\240@\000\000@@\000\000@@\000\000@@\000\000\200@\000\000\240@\000\000@@\000\000@@\000\000\200@\000\000\000@\000\000@@\000\000\200@\000\000\240@\000\000@@\000\000\000@\000\000\000@\000\000\200@\000\000\200@\000\000@@\000\000@@\000\000\200@\000\000@@\000\000\000@\000\000\300@\000\000\200?\000\000@@\000\000\200@\000\000\000@\000\000@@\000\000\000@\000\000\200@\000\000\240@\000\000\200?\000\000@@\000\000@@\000\000@@\000\000\200@\000\000@@\000\000@@\000\000\000@\000\000@@\000\000\200@\000\000@@\000\000@@\000\000\000@\000\000@@\000\000\000@\000\000\200?\000\000\000@\000\000@@\000\000\200@\000\000@@\000\000\200@\000\000\300@\000\000@@\000\000\200?\000\000\000@\000\000\000@\000\000\200@\000\000\300@\000\000@@\000\000\240@\000\000@@\000\000\000@\000\000@@\000\000\200@\000\000\000@\000\000\300@\000\000@@\000\000\200@\000\000\200?\000\000\200@\000\000\000@\000\000@@\000\000@@\000\000@@\000\000\200@\000\000\240@\000\000\000@\000\000\200@\000\000@@\000\000@@\000\000@@\000\000\000@\000\000\300@\000\000\300@\000\000\200@\000\000\200?\000\000@@\000\000@@\000\000\200@\000\000@@\000\000\240@\000\000@@\000\000\200@\000\000@@\000\000@@\000\000\200@\000\000\240@\000\000\200@\000\000\300@\000\000\200@\000\000\240@\000\000\200@\000\000@@\000\000\200@\000\000\240@\000\000@@\000\000\240@\000\000\200@\000\000\000@\000\000\240@\000\000\200@\000\000\000@\000\000@@\000\000@@\000\000@@\000\000\240@\000\000\240@\000\000@@\000\000\200@\000\000\200@\000\000\000@\000\000@@\000\000@@\000\000\200@\000\000@@\000\000@@\000\000\200?\000\000@@\000\000\000@\000\000\000@\000\000\240@\000\000@@\000\000\000@\000\000@@\000\000@@\000\000\000@\000\000\000@\000\000\200@\000\000\000@\000\000@@\000\000\300@\000\000\200@\000\000@@\000\000\200@\000\000\200@\000\000\200@\000\000\000@\000\000@@\000\000\200?\000\000\200@\000\000@@\000\000\000@\000\000@@\000\000@@\000\000\000@\000\000\200@\000\000@@\000\000\200@\000\000\000@\000\000\300@\000\000\000@\000\000@@\000\000\000@\000\000@@\000\000\200?\000\000@@\000\000\000@\000\000\000@\000\000\200@\000\000\000@\000\000\200@\000\000@@\000\000\200@\000\000\200@\000\000\240@\000\000\000@\000\000\240@\000\000\200@\000\000@@\000\000\000@\000\000\240@\000\000@@\000\000\200@\000\000\200@\000\000\200@\000\000\200@\000\000\000@\000\000\200@\000\000\200@\000\000\000@\000\000@@\000\000\200@\000\000\000@\000\000\200@\000\000\200@\000\000\000@\000\000\200@\000\000\240@\000\000\000@\000\000\200?\000\000\240@\000\000\200@\000\000\200?\000\000\200@\000\000\200@\000\000\200?\000\000\000@\000\000@@\000\000@@\000\000\000@\000\000\200@\000\000@@\000\000@@\000\000@@\000\000\000@\000\000@@\000\000\200@\000\000\000@\000\000@@\000\000\240@\000\000\000@\000\000\240@\000\000\000@\000\000\200@\000\000@@\000\000\000@\000\000\200@\000\000\240@\000\000@@\000\000@@\000\000\200@\000\000@@\000\000\240@\000\000\200@\000\000\200@\000\000\200?\000\000\200?\000\000\200@\000\000\000@\000\000\200?\000\000\200@\000\000@@\000\000\200@\000\000\200@\000\000\200@\000\000\300@\000\000\000@\000\000\200@\000\000\000@\000\000\200@\000\000\000@\000\000@@\000\000@@\000\000\000@\000\000@@\000\000\200@\000\000@@\000\000\240@\000\000@@\000\000@@\000\000@@\000\000@@\000\000\000@\000\000@@\000\000\000@\000\000@@\000\000@@\000\000\240@\000\000@@\000\000\000@\000\000@@\000\000@@\000\000@@\000\000@@\000\000@@\000\000\000@\000\000\000@\000\000\200@\000\000\000@\000\000\200@\000\000@@\000\000@@\000\000@@\000\000@@\000\000\000@\000\000\000@\000\000\000\000\000\000\240@\000\000@@\000\000@@\000\000\200?\000\000\200?\000\000@@\000\000@@\000\000@@\000\000\200@\000\000@@\000\000@@\000\000\240@\000\000@@\000\000\000@\000\000\000@\000\000\200@\000\000\240@\000\000\240@\000\000@@\000\000@@\000\000\240@\000\000\240@\000\000\000@\000\000@@\000\000\200@\000\000\200@\000\000\300@\000\000\200@\000\000\200@\000\000@@\000\000\000@\000\000\000@\000\000\240@\000\000\240@\000\000\000@\000\000@@\000\000@@\000\000@@\000\000\000@\000\000@@\000\000@@\000\000\000@\000\000@@\000\000\000@\000\000@@\000\000@@\000\000\200@\000\000@@\000\000\000@\000\000@@\000\000@@\000\000\000@\000\000\000@\000\000\000@\000\000\240@\000\000@@\000\000\200@\000\000\200@\000\000\200@\000\000\000@\000\000\000@\000\000\200@\000\000@@\000\000\200@\000\000@@\000\000\200@\000\000\000@\000\000@@\000\000\000@\000\000\300@\000\000@@\000\000\200@\000\000@@\000\000\000@\000\000\300@\000\000\200@\000\000@@\000\000\240@\000\000\200@\000\000@@\000\000\200?\000\000\240@\000\000\200@\000\000\000@\000\000\240@\000\000\000@\000\000@@\000\000@@\000\000\000@\000\000\200@\000\000\200?\000\000\200@\000\000\000@\000\000@@\000\000\240@\000\000\240@\000\000@@\000\000@@\000\000\240@\000\000@@\000\000\000@\000\000\200@\000\000@@\000\000\000@\000\000\200@\000\000@@\000\000@@\000\000\000@\000\000@@\000\000@@\000\000\000@\000\000\200@\000\000\200@\000\000@@\000\000\200?\000\000\200@\000\000\000@\000\000\200@\000\000\200@\000\000@@\000\000@@\000\000\200@\000\000\240@\000\000@@\000\000\200@\000\000\240@\000\000\000@\000\000\200@\000\000\200@\000\000\200@\000\000@@\000\000@@\000\000@@\000\000@@\000\000\000@\000\000\200@\000\000\240@\000\000@@\000\000\200@\000\000@@\000\000\000@\000\000\300@\000\000@@\000\000\000@\000\000\200@\000\000\000@\000\000\000@\000\000\200@\000\000@@\000\000\240@\000\000\200@\000\000@@\000\000\000@\000\000\200@\000\000@@\000\000\000@\000\000\200@\000\000\200@\000\000@@\000\000\200@\000\000@@\000\000\000@\000\000\240@\000\000\000@\000\000\000@\000\000\240@\000\000\200@\000\000\000@\000\000\200@\000\000@@\000\000\200@\000\000\000A\000\000@@\000\000@@\000\000@@\000\000\200@\000\000@@\000\000\000@\000\000@@\000\000\200@\000\000\200@\000\000\000@\000\000\200@\000\000\200@\000\000@@\000\000@@\000\000\200@\000\000@@\000\000@@\000\000@@\000\000\000@\000\000\300@\000\000\200@\000\000@@\000\000\000@\000\000@@\000\000\000@\000\000@@\000\000@@\000\000\200@\000\000@@\000\000@@\000\000\200@\000\000\200@\000\000\200@\000\000\200@\000\000@@\000\000\240@\000\000\200@\000\000@@\000\000\000@\000\000@@\000\000\200@\000\000\300@\000\000\200?\000\000\200?\000\000\000@\000\000\240@\000\000\240@\000\000\240@\000\000\200@\000\000\200@\000\000@@\000\000\000\000\000\000\200@\000\000\000@\000\000\000@\000\000@@\000\000@@\000\000@@\000\000\200?\000\000@@\000\000\300@\000\000\000@\000\000@@\000\000\300@\000\000\000@\000\000\000@\000\000\200@\000\000\000@\000\000\020A\000\000@@\000\000\240@\000\000\200@\000\000\240@\000\000@@\000\000\000@\000\000\000@\000\000\240@\000\000@@\000\000\200@\000\000@@\000\000\000@\000\000@@\000\000\200?\000\000\200?\000\000@@\000\000@@\000\000@@\000\000@@\000\000\000@\000\000\200@\000\000\000@\000\000\000@\000\000@@\000\000\200@\000\000\200@\000\000@@\000\000@@\000\000\200@\000\000\000@\000\000\200@\000\000\000@\000\000@@\000\000@@\000\000\200@\000\000@@\000\000\240@\000\000\000@\000\000@@\000\000\200@\000\000@@\000\000\000@\000\000\000@\000\000\200@\000\000\000@\000\000@@\000\000@@\000\000\200@\000\000\200@\000\000@@\000\000@@\000\000\000@\000\000@@\000\000\240@\000\000\000@\000\000\000@\000\000@@\000\000\200@\000\000\000@\000\000\200@\000\000 A\000\000@@\000\000\000@\000\000@@\000\000\000@\000\000\240@\000\000@@\000\000\000@\000\000@@\000\000\240@\000\000\300@\000\000\000@\000\000\000@\000\000\200?\000\000@@\000\000\000\000\000\000@@\000\000\000@\000\000\200@\000\000\200@\000\000\200?\000\000@@\000\000\200@\000\000\000@\000\000\240@\000\000\240@\000\000\240@\000\000\200@\000\000@@\000\000@@\000\000\200@\000\000\200@\000\000\000@\000\000\200@\000\000@@\000\000\200?\000\000\000@\000\000\240@\000\000@@\000\000\000@\000\000@@\000\000@@\000\000\200@\000\000\200@\000\000\200@\000\000\000@\000\000\200@\000\000@@\000\000@@\000\000@@\000\000\000@\000\000@@\000\000\200@\000\000@@\000\000@@\000\000\240@\000\000@@\000\000@@\000\000\000@\000\000@@\000\000\200@\000\000@@\000\000\000@\000\000@@\000\000\200@\000\000\200@\000\000@@\000\000\000@\000\000\200@\000\000@@\000\000\200?\000\000@@\000\000@@\000\000\000@\000\000\200@\000\000\200@\000\000@@\000\000@@\000\000@@\000\000\240@\000\000\200@\000\000\200@\000\000\200@\000\000@@\000\000\200@\000\000\000@\000\000\200@\000\000\200@\000\000\340@\000\000\200@\000\000\200@\000\000\240@\000\000@@\000\000@@\000\000\200@\000\000@@\000\000@@\000\000\200@\000\000@@\000\000\200@\000\000@@\000\000@@\000\000\200?\000\000@@\000\000\200@\000\000@@\000\000@@\000\000\200@\000\000\200@\000\000@@\000\000\240@\000\000\240@\000\000\300@\000\000@@\000\000\200?\000\000\000@\000\000\200@\000\000@@\000\000\000@\000\000\200@\000\000\200@\000\000\200@\000\000@@\000\000\000@\000\000@@\000\000\240@\000\000\200@\000\000\000@\000\000\200@\000\000@@\000\000@@\000\000\240@\000\000@@\000\000\200@\000\000@@\000\000\000@\000\000\000@\000\000@@\000\000\000@\000\000\000@\000\000\300@\000\000\200?\000\000\000@\000\000\000A\000\000\000@\000\000\200@\000\000\000@\000\000\240@\000\000\200?\000\000@@\000\000\000@\000\000\300@\000\000\200?\000\000\200@\000\000@@\000\000\200@\000\000@@\000\000\000@\000\000\240@\000\000\200@\000\000\200@\000\000@@\000\000\200@\000\000@@\000\000@@\000\000\240@\000\000\200@\000\000\200@\000\000@@\000\000\200@\000\000@@\000\000@@\000\000\200@\000\000\000\000\000\000\240@\000\000\000@\000\000\200?\000\000\240@\000\000@@\000\000@@\000\000\200@\000\000@@\000\000\000@\000\000@@\000\000@@\000\000@@\000\000\200?\000\000\240@\000\000\000@\000\000@@\000\000@@\000\000@@\000\000\000@\000\000\200@\000\000\000A\000\000\000A\000\000@@\000\000\240@\000\000@@\000\000@@\000\000\000@\000\000@@\000\000\000\000\000\000\000@\000\000@@\000\000@@\000\000\200@\000\000@@\000\000\000@\000\000\000@\000\000\300@\000\000\200@\000\000\200@\000\000\200@\000\000\200@\000\000@@\000\000@@\000\000\200@\000\000\200@\000\000\000@\000\000\200@\000\000\240@\000\000\200@\000\000@@\000\000@@\000\000\200@\000\000@@\000\000@@\000\000\200@\000\000\200?\000\000@@\000\000@@\000\000\000@\000\000\200?\000\000@@\000\000@@\000\000\000@\000\000@@\000\000@@\000\000\200?\000\000@@\000\000\240@\000\000@@\000\000\000@\000\000@@\000\000\200@\000\000@@\000\000\200@\000\000\200@\000\000\240@\000\000@@\000\000\240@\000\000\000@\000\000@@\000\000\200@\000\000@@\000\000\200@\000\000\200?\000\000@@\000\000\000@\000\000\200?\000\000@@\000\000\000@\000\000\000@\000\000\200@\000\000\200?\000\000@@\000\000@@\000\000\240@\000\000@@\000\000\240@\000\000\000@\000\000@@\000\000@@\000\000\240@\000\000@@\000\000@@\000\000\200@\000\000@@\000\000\200@\000\000@@\000\000\000@\000\000\000@\000\000\200@\000\000\200@\000\000\000@\000\000@@\000\000\000\000\000\000\200@\000\000@@\000\000@@\000\000\240@\000\000@@\000\000@@\000\000@@\000\000\000@\000\000@@\000\000\000@\000\000\200@\000\000\000@\000\000@@\000\000\240@\000\000\000@\000\000@@\000\000\200@\000\000@@\000\000\000@\000\000@@\000\000@@\000\000\340@\000\000\340@\000\000\200@\000\000\300@\000\000\240@\000\000\000@\000\000\200@\000\000@@\000\000\000@\000\000\000@\000\000\000@\000\000\240@\000\000@@\000\000\200?\000\000\200@\000\000@@\000\000\200@\000\000@@\000\000@@\000\000\200@\000\000@@\000\000\000@\000\000\200@\000\000\200@\000\000\200@\000\000\200@\000\000\000@\000\000\240@\000\000\000@\000\000\200?\000\000\200@\000\000\000@\000\000@@\000\000@@\000\000@@\000\000@@\000\000\200@\000\000\000@\000\000\200@\000\000\000@\000\000@@\000\000\240@\000\000\200@\000\000\000@\000\000\200@\000\000\000@\000\000\200@\000\000@@\000\000\240@\000\000\000@\000\000@@\000\000\000@\000\000\200@\000\000\340@\000\000\200@\000\000@@\000\000\200?\000\000\200@\000\000\200@\000\000\200@\000\000@@\000\000@@\000\000@@\000\000\300@\000\000@@\000\000@@\000\000\240@\000\000\000\000\000\000\000@\000\000\200@\000\000\200@\000\000\000@\000\000@@\000\000@@\000\000\000@\000\000@@\000\000@@\000\000\200@\000\000\000@\000\000\000@\000\000\200@\000\000\200@\000\000\200@\000\000\000@\000\000@@\000\000@@\000\000\000@\000\000\200@\000\000\000@\000\000@@\000\000@@\000\000\200@\000\000@@\000\000@@\000\000@@\000\000@@\000\000@@\000\000@@\000\000\200@\000\000@@\000\000\000@\000\000\000@\000\000\000@\000\000\000\000\000\000\000\000\000\000\240@\000\000\200@\000\000@@\000\000@@\000\000@@\000\000\000@\000\000@@\000\000\000@\000\000\200@\000\000@@\000\000@@\000\000\000@\000\000@@\000\000\200@\000\000\200@\000\000@@\000\000@@\000\000@@\000\000@@\000\000\000@\000\000\200@\000\000\200@\000\000@@\000\000\000@\000\000@@\000\000\000@\000\000\200@\000\000@@\000\000@@\000\000\000@\000\000\200?\000\000@@\000\000\000@\000\000\000@\000\000\000@\000\000@@\000\000@@\000\000\200@\000\000\000@\000\000\200?\000\000@@\000\000\000@\000\000@@\000\000@@\000\000\200@\000\000@@\000\000\000@\000\000@@\000\000@@\000\000@@\000\000\000@\000\000@@\000\000@@\000\000\200@\000\000@@\000\000\000@\000\000\200@\000\000@@\000\000\000@\000\000\200@\000\000@@\000\000@@\000\000@@\000\000@@\000\000\000@\000\000\000@\000\000\000@\000\000@@\000\000@@\000\000\200@\000\000\000@\000\000\300@\000\000\200@\000\000\000@\000\000\200@\000\000@@\000\000@@\000\000\240@\000\000\200@\000\000@@\000\000\200@\000\000\000@\000\000\000@\000\000\000\000\000\000@@\000\000\000@\000\000@@\000\000@@\000\000\200@\000\000\200@\000\000\200@\000\000\200@\000\000\000@\000\000\240@\000\000@@\000\000@@\000\000\240@\000\000@@\000\000\200?\000\000\000@\000\000@@\000\000@@\000\000\200?\000\000\200@\000\000\240@\000\000@@\000\000\240@\000\000\200@\000\000\200@\000\000@@\000\000@@\000\000\000@\000\000\000@\000\000\000@\000\000@@\000\000@@\000\000@@\000\000\200@\000\000@@\000\000@@\000\000\000\000\000\000@@\000\000\200@\000\000\000@\000\000\240@\000\000@@\000\000\000\000\000\000\200?\000\000\200@\000\000\000@\000\000\200@\000\000\240@\000\000@@\000\000@@\000\000\200@\000\000@@\000\000\200@\000\000@@\000\000@@\000\000\000@\000\000\240@\000\000\200?\000\000\200@\000\000\200@\000\000@@\000\000\000@\000\000\000@\000\000\000@\000\000\200@\000\000@@\000\000@@\000\000@@\000\000@@\000\000\200@\000\000\000@\000\000\300@\000\000\200@\000\000\240@\000\000\200@\000\000\200@\000\000\240@\000\000@@\000\000\000@\000\000@@\000\000\300@\000\000\000@\000\000@@\000\000\200@\000\000\200@\000\000\000@\000\000\000@\000\000@@\000\000\000@\000\000@@\000\000@@\000\000@@\000\000\000@\000\000\200@\000\000\200@\000\000\000@\000\000\000@\000\000\000@\000\000@@\000\000\200@\000\000\000@\000\000@@\000\000@@\000\000\200@\000\000\000@\000\000\000@\000\000\000@\000\000\200?\000\000\000@\000\000\200?\000\000\240@\000\000\240@\000\000@@\000\000@@\000\000\200@\000\000@@\000\000\000@\000\000\200@\000\000\000@\000\000\200@\000\000\020A\000\000@@\000\000\000@\000\000@@\000\000\240@\000\000\300@\000\000@@\000\000@@\000\000\000@\000\000\200@\000\000@@\000\000\000@\000\000@@\000\000@@\000\000\000@\000\000\200@\000\000\000@\000\000@@\000\000\240@\000\000\000\000\000\000@@\000\000@@\000\000@@\000\000\200?\000\000\200@\000\000\000@\000\000\200@\000\000\200@\000\000@@\000\000@@\000\000@@\000\000@@\000\000\000@\000\000@@\000\000@@\000\000\240@\000\000\000@\000\000\240@\000\000\240@\000\000\000@\000\000@@\000\000\200@\000\000\200@\000\000\300@\000\000\240@\000\000@@\000\000@@\000\000@@\000\000\000@\000\000@@\000\000@@\000\000\200@\000\000@@\000\000@@\000\000\200@\000\000@@\000\000\200@\000\000@@\000\000\000@\000\000@@\000\000\000@\000\000\000@\000\000@@\000\000@@\000\000\000@\000\000\000@\000\000\000@\000\000\000@\000\000\000@\000\000@@\000\000\000@\000\000\200@\000\000@@\000\000@@\000\000\200@\000\000\240@\000\000@@\000\000@@\000\000\240@\000\000\000@\000\000\200@\000\000@@\000\000\000@\000\000\200@\000\000@@\000\000@@\000\000@@\000\000\000@\000\000\240@\000\000\000@\000\000\000@\000\000@@\000\000\200@\000\000@@\000\000\200@\000\000\200@\000\000\200@\000\000@@\000\000\200?\000\000@@\000\000@@\000\000\000@\000\000\200@\000\000\240@\000\000@@\000\000@@\000\000\000@\000\000@@\000\000\240@\000\000\000@\000\000\000@\000\000\200@\000\000\000@\000\000\000@\000\000@@\000\000\200?\000\000\000@\000\000@@\000\000\200@\000\000@@\000\000\240@\000\000@@\000\000\200@\000\000\240@\000\000\200@\000\000@@\000\000\200@\000\000\200?\000\000@@\000\000@@\000\000\000@\000\000\200@\000\000\000@\000\000@@\000\000@@\000\000@@\000\000\240@\000\000\200?\000\000\000@\000\000\240@\000\000@@\000\000\000@\000\000\000@\000\000@@\000\000\200@\000\000@@\000\000\200@\000\000\000@\000\000\000@\000\000\000@\000\000\240@\000\000\200?\000\000@@\000\000\000@\000\000@@\000\000@@\000\000@@\000\000\000@\000\000\000@\000\000\300@\000\000@@\000\000\200@\000\000\000@\000\000@@\000\000\200@\000\000@@\000\000\200@\000\000\000@\000\000@@\000\000@@\000\000@@\000\000\200@\000\000\000@\000\000@@\000\000\200?\000\000\000@\000\000\200@\000\000@@\000\000\000@\000\000@@\000\000\200@\000\000@@\000\000@@\000\000@@\000\000@@\000\000@@\000\000\000@\000\000\200@\000\000\240@\000\000\000@\000\000@@\000\000\000@\000\000\300@\000\000\300@\000\000\340@\000\000\000@\000\000@@\000\000\000@\000\000@@\000\000@@\000\000@@\000\000\200@\000\000\200@\000\000\200?\000\000\200?\000\000\200@\000\000\200@\000\000@@\000\000\240@\000\000@@\000\000\240@\000\000\200@\000\000\200@\000\000\240@\000\000\200@\000\000\000@\000\000\000@\000\000\240@\000\000@@\000\000@@\000\000\000@\000\000\000@\000\000\200@\000\000\200@\000\000\200?\000\000\240@\000\000@@\000\000\000@\000\000\200@\000\000\000@\000\000\000@\000\000\000@\000\000\200@\000\000\200@\000\000\200?\000\000\200@\000\000@@\000\000\000@\000\000@@\000\000@@\000\000\000@\000\000\200@\000\000\200@\000\000\200@\000\000\000@\000\000\200@\000\000@@\000\000@@\000\000\200@\000\000@@\000\000@@\000\000@@\000\000\200@\000\000@@\000\000\000@\000\000\000@\000\000\240@\000\000\240@\000\000\000@\000\000\200@\000\000\200@\000\000\240@\000\000\000\000\000\000\300@\000\000@@\000\000@@\000\000\200?\000\000\200@\000\000@@\000\000\200@\000\000\000@\000\000@@\000\000@@\000\000\200@\000\000@@\000\000\200@\000\000@@\000\000\200@\000\000\200?\000\000\200@\000\000@@\000\000\200@\000\000\000@\000\000\200@\000\000\000@\000\000\200@\000\000@@\000\000\000@\000\000@@\000\000\200@\000\000\000@"
      }
    }
  }
}
node {
  name: "Const_1"
  op: "Const"
  attr {
    key: "_output_shapes"
    value {
      list {
        shape {
          dim {
            size: 2455
          }
        }
      }
    }
  }
  attr {
    key: "dtype"
    value {
      type: DT_FLOAT
    }
  }
  attr {
    key: "value"
    value {
      tensor {
        dtype: DT_FLOAT
        tensor_shape {
          dim {
            size: 2455
          }
        }
        tensor_content: "\000\000\000@\000\000\000@\000\000@A\000\000\000@\000\000\000@\000\000\000@\000\000\000@\000\000@@\000\000@@\000\000\000@\000\000\000@\000\000@@\000\000@@\000\000\000@\000\000\200?\000\000@@\000\000\000@\000\000\200@\000\000@@\000\000@@\000\000\000@\000\000\000@\000\000\000@\000\000\000@\000\000\000@\000\000\200@\000\000\300@\000\000\200?\000\000@@\000\000\000@\000\000\000@\000\000\000@\000\000@@\000\000\200@\000\000\000@\000\000\200@\000\000@@\000\000\000@\000\000\000@\000\000\000@\000\000\000@\000\000@@\000\000\000@\000\000@@\000\000@@\000\000\000@\000\000\000@\000\000\200@\000\000\000@\000\000\200?\000\000\000@\000\000\000@\000\000\000@\000\000\000@\000\000@@\000\000@@\000\000@@\000\000@@\000\000\200?\000\000\000@\000\000\000@\000\000\000A\000\000@@\000\000\000@\000\000\200?\000\000\000@\000\000\000@\000\000\000@\000\000\200@\000\000@@\000\000\000@\000\000@@\000\000\200?\000\000\000@\000\000\200@\000\000\000@\000\000@@\000\000\300@\000\000@@\000\000@@\000\000@@\000\000@@\000\000@@\000\000\020A\000\000\200?\000\000\200?\000\000\200?\000\000@@\000\000\200?\000\000\240@\000\000\000@\000\000@@\000\000\200@\000\000@@\000\000\000@\000\000\200@\000\000@@\000\000\000@\000\000\340@\000\000\000@\000\000\240@\000\000@@\000\000\000@\000\000\200@\000\000@@\000\000\000@\000\000\000@\000\000\000@\000\000\200@\000\000@@\000\000\000@\000\000\000@\000\000\240@\000\000\000@\000\000\000@\000\000\200?\000\000@@\000\000\000@\000\000 @\000\000\000@\000\000\200@\000\000\000@\000\000\240@\000\000\000@\000\000\000@\000\000\000@\000\000@@\000\000\240@\000\000\000@\000\000@@\000\000@@\000\000\000@\000\000@@\000\000\000\000\000\000@@\000\000@@\000\000@@\000\000\000@\000\000@@\000\000@@\000\000\240@\000\000\000@\000\000\300@\000\000@@\000\000\300@\000\000@@\000\000@@\000\000\000@\000\000@@\000\000@@\000\000\000@\000\000\000@\000\000\000@\000\000\300@\000\000@@\000\000 @\000\000\300@\000\000@@\000\000 @\000\000@@\000\000 @\000\000@@\000\000\340@\000\000\000@\000\000\000@\000\000\000@\000\000\000@\000\000\000@\000\000 @\000\000\000@\000\000@@\000\000\200?\000\000\000@\000\000\000@\000\000\200@\000\000@@\000\000\000@\000\000@@\000\000\240@\000\000@@\000\000\000@\000\000\000@\000\000\000@\000\000\000@\000\000@@\000\000@@\000\000\000@\000\000\000@\000\000\200?\000\000\000@\000\000\200@\000\000\000@\000\000\200@\000\000@@\000\000\000@\000\000\000@\000\000\000@\000\000\200@\000\000\000@\000\000@@33\203@\000\000\000@\000\000@@\000\000\200@\000\000@@\000\000\200@\000\000@@\000\000@@\000\000\000@\000\000@@\000\000\000@\000\000\000@\000\000\000@\000\000\000@\000\000\000@\000\000@@\000\000\240@\000\000@@\000\000@@\000\000@@\000\000@@\000\000 @\000\000@@\000\000\200?\000\000@@\000\000\000@\000\000\300@\000\000\000@\000\000\000A\000\000\200@\000\000\200?\000\000\000@\000\000@@\000\000\000@\000\000@@\000\000\000@\000\000@@\000\000\200?\000\000@@\000\000\000@\000\000\000@\000\000\200@\000\000@@\000\000\000@\000\000\000@\000\000\200?\000\000\200?\000\000\000@\000\000@@\000\000@@\000\000@@\000\000@@\000\000\300@\000\000@@\000\000\000@\000\000\000@\000\000\000@\000\000\200?\000\000@@\000\000\000@\000\000@@\000\000@@\000\000\000@\000\000\000@\000\000@@\000\000@@\000\000@@\000\000\000@\000\000\000@\000\000\000@\000\000@@\000\000\000@\000\000\240@\000\000\200@\000\000\000@\000\000\000\000\000\000\240@\000\000\000@\000\000\000@\000\000\200?\000\000@@\000\000@@\000\000\000@\000\000\000@\000\000@@\000\000\000@\000\000\000@\000\000\200@\000\000@@\000\000@@\000\000\200@\000\000@@\000\000\000@\000\000\200@\000\000\200@\000\000\200?\000\000\200?\000\000@@\000\000\200@\000\000\000@\000\000\200@\000\000\200?\000\000\200@\000\000@@\000\000@@\000\000@@\000\000\300@\000\000@@\000\000@@\000\000\240@\000\000\200@\000\000\000@\000\000\000@\000\000\200@\000\000\000@\000\000\000@\000\000\240@\000\000@@\000\000\200?\000\000\000@\000\000@@\000\000\000@\000\000@@\000\000\200@\000\000@@\000\000\000@\000\000\240@\000\000@@\000\000@@\000\000\000@\000\000\000@\000\000@@\000\000\200?\000\000@@\000\000\000@\000\000\200?\000\000 @\000\000\200@\000\000@@\000\000\200?\000\000@@\000\000@@\000\000\000@\000\000\000@\000\000@@\000\000@@\000\000\240@\000\000@@\000\000\200@\000\000@@\000\000\200@\000\000\240@\000\000\000@\000\000\200?\000\000\000@\000\000\000@\000\000\000@\000\000\300?\000\000\000@\000\000@@\000\000\000@\000\000@@\000\000\000@\000\000@@\000\000\200?\000\000\000@\000\000@@\000\000@@\000\000\000@\000\000@@\000\000@@\000\000@@\000\000\200?\000\000\240@\000\000\240@\000\000@@\000\000@@\000\000@@\000\000\000@\000\000@@\000\000\200@\000\000@@\000\000@@\000\000\000@\000\000\200@\000\000\200?\000\000\000@\000\000\200?\000\000\200@\000\000@@\000\000\200?\000\000\200@\000\000\000@\000\000\000@\000\000\000@\000\000\000@\000\000 @\000\000\200@\000\000@@\000\000@@\000\000@@\000\000\000@\000\000\000@\000\000\000\000\000\000@@\000\000@@\000\000@@\000\000\000@\000\000\000@\000\000\000@\000\000@@\000\000\000@\000\000\200@\000\000@@\000\000\000@\000\000@@\000\000\000@\000\000\000@\000\000\000@\000\000@@\000\000@@\000\000\000@\000\000\000@\000\000@@\000\000\000@\000\000\200?\000\000\200?\000\000@@\000\000\000@\000\000\000@\000\000\200?\000\000\340@\000\000@@\000\000@@\000\000@@\000\000\200?\000\000\000@\000\000@@\000\000\200?\000\000\200?\000\000@@\000\000\000@\000\000\000@\000\000@@\000\000\000@\000\000\000@\000\000\240@\000\000\000@\000\000\000@\000\000\000@\000\000\000@\000\000\200@\000\000\000@\000\000\300@\000\000\000@\000\000@@\000\000\000@\000\000\240@\000\000@@\000\000\000@\000\000\200?\000\000\000@\000\000@@\000\000\200@\000\000@@\000\000\000@\000\000\000@\000\000\300@\000\000@@\000\000\000@\000\000\000@\000\000\200?\000\000\000@\000\000@@\000\000@@\000\000\000@\000\000\200@\000\000\200?\000\000@@\000\000@@\000\000\000@\000\000\000@\000\000\000@\000\000\000@\000\000\000@\000\000\300@\000\000@@\000\000\200?\000\000\200?\000\000\000@\000\000\000@\000\000@@\000\000@@\000\000@@\000\000@@\000\000\000@\000\000\200?\000\000\000@\000\000\000@\000\000@@\000\000@@\000\000\000@\000\000\340@\000\000\000@\000\000@@\000\000\000@\000\000@@\000\000\000@\000\000\200?\000\000\000@\000\000@@\000\000@@\000\000@@\000\000\000@\000\000@@\000\000@@\000\000@@\000\000@@\000\000@@\000\000@@\000\000\240@\000\000\200@\000\000\200@\000\000\000@\000\000@@\000\000\200?\000\000\200?\000\000@@\000\000\240@\000\000@@\000\000\000@\000\000\000@\000\000@@\000\000\000@\000\000\000@\000\000\200?\000\000\000@\000\000@@\000\000\240@\000\000@@\000\000\000@\000\000@@\000\000\000@\000\000@@\000\000@@\000\000\240@\000\000\200?\000\000\000@\000\000\000@\000\000@@\000\000\200@\000\000\000@\000\000@@\000\000\000@\000\000\200?\000\000\000@\000\000\000@\000\000\000@\000\000\000@\000\000\000@\000\000@@\000\000@@\000\000@@\000\000@@\000\000\000@\000\000\000@\000\000\000@\000\000@@\000\000@@\000\000@@\000\000\000@\000\000\000@\000\000\000@\000\000@@\000\000\000@\000\000\000@\000\000@@\000\000@@\000\000\000@\000\000\200@\000\000\200@\000\000\000\000\000\000@@\000\000@@\000\000@@\000\000\200?\000\000\000@\000\000\000@\000\000\200@\000\000\000@\000\000@@\000\000\000@\000\000@@\000\000\000@\000\000\000@\000\000\200?\000\000@@\000\000\000@\000\000@@\000\000@@\000\000\200?\000\000\000@\000\000\000@\000\000\000@\000\000@@\000\000\000@\000\000@@\000\000@@\000\000\000@\000\000\000@\000\000@@\000\000\000@\000\000\000@\000\000\000@\000\000\000@\000\000\000@\000\000\000@\000\000\200?\000\000\200?\000\000\000@\000\000\000@\000\0000A\000\000\200?\000\000\000@\000\000\000@\000\000@@\000\000\000@\000\000\240@\000\000\000@\000\000\000@\000\000@@\000\000@@\000\000\240@\000\000@@\000\000\000@\000\000\000@\000\000@@\000\000\200?\000\000\300@\000\000\300@\000\000@@\000\000\200@\000\000\000@\000\000\000@\000\000@@\000\000\200@\000\000@@\000\000\200?\000\000\000@\000\000\200@\000\000\200?\000\000@@\000\000\000@\000\000@@\000\000\000@\000\000@@\000\000@@\000\000\000@\000\000@@\000\000\000@\000\000\200?\000\000@@\000\000\010A\000\000\000@\000\000\000@\000\000\000@\000\000@@\000\000\000@\000\000\200?\000\000@@\000\000\000A\000\000\000\000\000\000\200?\000\000@@\000\000 @\000\000@@\000\000\200?\000\000\200?\000\000@@\000\000\000@\000\000@@\000\000\000@\000\000\000@\000\000\300@\000\000@@\000\000\000@\000\000@@\000\000@@\000\000\200?\000\000\000@\000\000\200@\000\000\000@\000\000\000@\000\000\200@\000\000\240@\000\000\000@\000\000\200?\000\000\000@\000\000@@\000\000\200@\000\000@@\000\000\200?\000\000\000@\000\000\000@\000\000\000@\000\000@@\000\000\000@\000\000\200?\000\000\200@\000\000@@\000\000@@\000\000@@\000\000@@\000\000\000@\000\000\000@\000\000\000@\000\000@@\000\000\200?\000\000\200@\000\000\240@\000\000\000@\000\000\000@\000\000@@\000\000@@\000\000\000@\000\000\200@\000\000\000@\000\000@@\000\000@@\000\000\200@\000\000\000@\000\000\240@\000\000\200?\000\000\000@\000\000\200@\000\000@@\000\000\000@\000\000\200@\000\000\000@\000\000\200@\000\000\000@\000\000@@\000\000\000@\000\000\000@\000\000\000@\000\000\000@\000\000\210A\000\000\240@\000\000@@\000\000\000@\000\000\000@\000\000\000\000\000\000\000@\000\000\200@\000\000\340@\000\000@@\000\000\300@\000\000@@\000\000@@\000\000\000@\000\000\000@\000\000\000@\000\000\200?\000\000@@\000\000\240@\000\000\000@\000\000@@\000\000\000@\000\000@@\000\000@@\000\000@@\000\000\200?\000\000@@\000\000\200@\000\000@@\000\000\000@\000\000@@\000\000@@\000\000\000@\000\000\000@\000\000\200?\000\000\000@\000\000\200?\000\000\000@\000\000\240@\000\000\000@\000\000\200?\000\000@@\000\000\200?\000\000\000@\000\000\000@\000\000\000@\000\000\000@\000\000\000@\000\000@@\000\000@@\000\000\200?\000\000\000@\000\000@@\000\000\200?\000\000\200?\000\000\000@\000\000\000@\000\000\000@\000\000\200@\000\000\000@\000\000\000@\000\000@@\000\000\200?\000\000\000@\000\000@@\000\000\000@\000\000\200@\000\000\000@\000\000@@\000\000\000@\000\000\200?\000\000@@\000\000\240@\000\000\200@\000\000\000@\000\000\000@\000\000\000@\000\000@@\000\000@@\000\000@@\000\000\000@\000\000\000@\000\000\000@\000\000\000@\000\000\000@\000\000\000@\000\000\200?\000\000@@\000\000\000@\000\000@@\000\000\300@\000\000@@\000\000\200@\000\000@@\000\000\000@\000\000\000A\000\000\000@\000\000\000@\000\000@@\000\000\200@\000\000\000@\000\000\000@\000\000\000@\000\000\200?\000\000\240@\000\000\300@\000\000\000@\000\000@@\000\000@@\000\000\200?\000\000@@\000\000@@\000\000@@\000\000@@\000\000\000@\000\000@@\000\000\000@\000\000@@\000\000@@\000\000@@\000\000@@\000\000@@\000\000@@\000\000\000@\000\000\000@\000\000\200@\000\000@@\000\000\000@\000\000\200?\000\000\000@\000\000@@\000\000\000@\000\000@@\000\000@@\000\000\000@\000\000\000@\000\000\000@\000\000@@\000\000@@\000\000@@\000\000@@\000\000@@\000\000\000@\000\000\200@\000\000\240@\000\000\000@\000\000\000@\000\000\000@\000\000@@\000\000\240@\000\000@@\000\000\200@\000\000@@\000\000\000@\000\000\200?\000\000@@\000\000\000@\000\000\000@\000\000\200?\000\000\000@\000\000\240@\000\000@@\000\000@@\000\000\000@\000\000\000@\000\000\000@\000\000\200@\000\000@@\000\000@@\000\000\200@\000\000@@\000\000\000@\000\000\000@\000\000@@\000\000\200?\000\000\000@\000\000\000@\000\000\000@\000\000\000@\000\000@@\000\000\200@\000\000@@\000\000@@\000\000\000@\000\000@@\000\000@@\000\000\000@\000\000\200?\000\000\200?\000\000\200@\000\000\000@\000\000\000@\000\000\200?\000\000\000@\000\000\000@\000\000\200@\000\000\000@\000\000@@\000\000\000@\000\000\000@\000\000\200?\000\000\200?\000\000\000@\000\000\200?\000\000\200?\000\000\000@\000\000\000@\000\000@@\000\000\000@\000\000\200@\000\000\240@\000\000@@\000\000\000@\000\000\000@\000\000@@\000\000@@\000\000\000@\000\000\000@\000\000@@\000\000\000@\000\000\000@\000\000@@\000\000\200@\000\000\000@\000\000\000@\000\000\000@\000\000@@\000\000\000@\000\000@@\000\000\000@\000\000\200@\000\000\000@\000\000\000@\000\000\240@\000\000\200?\000\000\000@\000\000\240@\000\000\000@\000\000\000@\000\000\200?\000\000\200@\000\000\200@\000\000\200?\000\000@@\000\000@@\000\000\200?\000\000@@\000\000@@\000\000\200@\000\000 @\000\000\200@\000\000@@\000\000\000@\000\000\000@\000\000\000@\000\000\000@\000\000\200?\000\000\000@\000\000\000@\000\000@@\000\000\000@\000\000@@\000\000@@\000\000@@\000\000\200?\000\000\200?\000\000\200?\000\000\000@\000\000\200@\000\000\200@\000\000\200?\000\000@@\000\000\000@\000\000\000@\000\000\000@\000\000\200@\000\000@@\000\000\000A\000\000\000@\000\000\200@\000\000\200?\000\000\000@\000\000\000@\000\000@@\000\000\000@\000\000\000@\000\000\000@\000\000\300@\000\000\200?\000\000\240@\000\000\000@\000\000@@\000\000@@\000\000\000@\000\000\020A\000\000\000A\000\000\000@\000\000\200?\000\000@@\000\000\000@\000\000\300@\000\000@@\000\000\300@\000\000\000@\000\000@@\000\000`@\000\000\000@\000\000@@\000\000\240@\000\000\240@\000\000@@\000\000\000@\000\000@@\000\000\240@\000\000@@\000\000@@\000\000@@\000\000@@\000\000@@\000\000@@\000\000@@\000\000@@\000\000@@\000\000\200?\000\000@@\000\000\000@\000\000\200?\000\000\240@\000\000\240@\000\000@@\000\000@@\000\000@@\000\000\000@\000\000\000@\000\000\000@\000\000\000@\000\000\000@\000\000@@\000\000\200?\000\000\000@\000\000\000@\000\000\000@\000\000@@\000\000\000@\000\000\000@\000\000\000@\000\000\000@\000\000 @\000\000\000@\000\000\200@\000\000\000@\000\000\000@\000\000 A\000\000\200@\000\000\000@\000\000\000@\000\000\300@\000\000@@\000\000\000@\000\000@@\000\000\000@\000\000@@\000\000\000@\000\000@@\000\000@@\000\000@@\000\000\000@\000\000@@\000\000\200@\000\000\200@\000\000@@\000\000\300@\000\000\000@\000\000\000@\000\000@@\000\000@@\000\000\200?\000\000\000@\000\000@@\000\000\000@\000\000@@\000\000@@\000\000\200@\000\000\000@\000\000\000@\000\000\000@\000\000 A\000\000\000@\000\000\200@\000\000\000@\000\000\000@\000\000@@\000\000\300@\000\000\000@\000\000@@\000\000@@\000\000@@\000\000@@\000\000\000@\000\000@@\000\000\000@\000\000@@\000\000\000@\000\000@@\000\000\000@\000\000\200@\000\000@@\000\000\000@\000\000@@\000\000@@\000\000\000@\000\000\000@\000\000@@\000\000@@\000\000\200?\000\000@@\000\000@@\000\000\200?\000\000\000@\000\000\000@\000\000\000@\000\000\200?\000\000@@\000\000\200?\000\000\000@\000\000\000@\000\000\000@\000\000@@\000\000\240@\000\000\200?\000\000\000@\000\000@@\000\000\000@\000\000\340@\000\000@@\000\000\200@\000\000\000@\000\000\000@\000\000\240@\000\000@@\000\000@@\000\000\000@\000\000\240@\000\000\000@\000\000\020A\000\000@@\000\000@@\000\000\200?\000\000\200?\000\000@@\000\000@@\000\000\200?\000\000\200@\000\000\000@\000\000\200@\000\000\000@\000\000\000@\000\000\020A\000\000\000@\000\000@@\000\000\000@\000\000\200@\000\000\000@\000\000\000@\000\000\000@\000\000\000@\000\000\000@\000\000@@\000\000@@\000\000\200@\000\000\200@\000\000\000@\000\000@@\000\000@@\000\000\000@\000\000@@\000\000@@\000\000@@\000\000\000@\000\000\000@\000\000@@\000\000@@\000\000@@\000\000`@\000\000\000@\000\000\000@\000\000 @\000\000\000@\000\000\000@\000\000\000@\000\000\200?\000\000\000@\000\000@@\000\000@@\000\000\000@\000\000@@\000\000 @\000\000\000@\000\000\000\000\000\000@@\000\000@@\000\000\000@\000\000\200?\000\000\200?\000\000@@\000\000@@\000\000 @\000\000@@\000\000\000@\000\000\000@\000\000@@\000\000\000@\000\000\000@\000\000\200?\000\000@@\000\000\240@\000\000\200@\000\000\000@\000\000\000@\000\000@@\000\000@@\000\000\000@\000\000\000@\000\000\000@\000\000\200@\000\000\240@\000\000@@\000\000\200@\000\000@@\000\000@@\000\000\200?\000\000@@\000\000@@\000\000\000@\000\000\000@\000\000\000@\000\000\200?\000\000@@\000\000\200@\000\000@@\000\000\000@\000\000\000@\000\000\000@\000\000@@\000\000@@\000\000\200@\000\000@@\000\000\000@\000\000\000@\000\000\000@\000\000@@\000\000\200?\000\000\000@\000\000\200@\000\000\000@\000\000\000@\000\000\000@\000\000@@\000\000\000@\000\000\200?\000\000@@\000\000\000@\000\000\000@\000\000\000@\000\000@@\000\000\000@\000\000@@\000\000\000@\000\000\200@\000\000\000@\000\000\200@\000\000\000@\000\000\000@\000\000\300@\000\000\000@\000\000@@\000\000\000@\000\000\200@\000\000\200@\000\000\200?\000\000@@\000\000@@\000\000\300?\000\000\340@\000\000\200?\000\000\000@\000\000\200?\000\000\000@\000\000@@\000\000\200?\000\000\200@\000\000\000@\000\000@@\000\000@@\000\000\200@\000\000@@\000\000@@\000\000@@\000\000@@\000\000\000@\000\000\300@\000\000@@\000\000\200?\000\000@@\000\000@@\000\000\200@\000\000\000@\000\000\000@\000\000@@\000\000\000@\000\000\000@\000\000\000@\000\000\000@\000\000\000@\000\000@@\000\000\000@\000\000\000@\000\000\000@\000\000\000@\000\000\000@\000\000\000@\000\000@@\000\000@@\000\000\000@\000\000\240@\000\000\000@\000\000@@\000\000@@\000\000@@\000\000\000@\000\000@@\000\000\200?\000\000 @\000\000\000@\000\000\000@\000\000\240@\000\000\000@\000\000@@\000\000\000@\000\000\200?\000\000@@\000\000\240@\000\000\200?\000\000@@\000\000\000@\000\000\000@\000\000@@\000\000@@\000\000\000@\000\000@@\000\000\000@\000\000@@\000\000@@\000\000\000@\000\000@@\000\000\000@\000\000\240@\000\000@@\000\000\240@\000\000@@\000\000\000@\000\000@@\000\000\000@\000\000\200?\000\000@@\000\000@@\000\000\000@\000\000\240@\000\000\000@\000\000\240@\000\000\200@\000\000\000@\000\000@@\000\000\000@\000\000@@\000\000\000@\000\000\200?\000\000\000@\000\000@@\000\000\000@\000\000@@\000\000\000@\000\000\200@\000\000\000@\000\000@@\000\000@@\000\000@@\000\000@@\000\000\000@\000\000\000@\000\000 @\000\000\000@\000\000@@\000\000\000@\000\000\200?\000\000\000@\000\000\000@\000\000@@\000\000\000@\000\000\000@\000\000@@\000\000@@\000\000@@\000\000\000@\000\000\200@\000\000\000@\000\000\340@\000\000\000@\000\000\000@\000\000\200?\000\000\200?\000\000\000@\000\000\300@\000\000\200?\000\000\200?\000\000\000@\000\000\200@\000\000@@\000\000@@\000\000@@\000\000\240@\000\000\000@\000\000\200@\000\000@@\000\000@@\000\000\000@\000\000@@\000\000 @\000\000@@\000\000\200?\000\000\000@\000\000\200?\000\000\000@\000\000@@\000\000\340@\000\000\000@\000\000\000@\000\000@@\000\000\000@\000\000\200@\000\000\000@\000\000@@\000\000@@\000\000\240@\000\000@@\000\000\000@\000\000\000@\000\000@@\000\000\000@\000\000@@\000\000\000@\000\000@@\000\000\000@\000\000\200?\000\000\200?\000\000@@\000\000\000@\000\000\000@\000\000\000@\000\000\000@\000\000@@\000\000\000@\000\000\000@\000\000@@\000\000@@\000\000\200@\000\000@@\000\000@@\000\000\000@\000\000\000@\000\000@@\000\000\200?\000\000@@\000\000\200?\000\000\000@\000\000\000@\000\000\200@\000\000\200?\000\000\000@\000\000@@\000\000\000@\000\000\000@\000\000\000@\000\000@@\000\000\000@\000\000\000@\000\000\000@\000\000@@\000\000\000@\000\000\000@\000\000\000@\000\000\000@\000\000\000@\000\000\300@\000\000\200?\000\000\000@\000\000@@\000\000@@\000\000\000@\000\000@@\000\000@A\000\000\000@\000\000@@\000\000\000@\000\000\200?\000\000\300@\000\000\300@\000\000\000@\000\000\200?\000\000\240@\000\000@@\000\000\000@\000\000\000@\000\000\000\000\000\000\000@\000\000\200?\000\000\000@\000\000\000@\000\000\000@\000\000@@\000\000\000@\000\000\000@\000\000@@\000\000\200?\000\000@@\000\000\340@\000\000@@\000\000@@\000\000\000@\000\000@@\000\000\000@\000\000@@\000\000\000@\000\000\000@\000\000\000@\000\000\200?\000\000\000@\000\000\240@\000\000\000@\000\000\000@\000\000@@\000\000\000@\000\000\200@\000\000\240@\000\000\000@\000\000\000@\000\000@@\000\000\000@\000\000@@\000\000\200@\000\000\000@\000\000@@\000\000@@\000\000@@\000\000\000@\000\000\340@\000\000\000@\000\000@@\000\000@@\000\000@@\000\000@@\000\000\000@\000\000\000@\000\000@@\000\000\000@\000\000\000@\000\000\000@\000\000\000@\000\000\000@\000\000\000@\000\000\200?\000\000@@\000\000\000@\000\000@@\000\000@@\000\000@@\000\000@@\000\000\000@\000\000\000@\000\000\000@\000\000\200@\000\000\000@\000\000\000@\000\000\000@\000\000\000@\000\000\000@\000\000@@\000\000@@\000\000\300@\000\000\200@\000\000@@\000\000\200@\000\000\000@\000\000@@\000\000@@\000\000\200@\000\000\200@\000\000@@\000\000\200@\000\000\240@\000\000\000@\000\000\000@\000\000\200?\000\000\000@\000\000\240@\000\000@@\000\000\000@\000\000@@\000\000@@\000\000\000@\000\000\300@\000\000\000@\000\000@@\000\000\000@\000\000\200?\000\000\000@\000\000@@\000\000\000@\000\000\200?\000\000@@\000\000\000@\000\000\240@\000\000\000@\000\000@@\000\000\000@\000\000\240@\000\000@@\000\000\200?\000\000\000@\000\000\000@\000\000\000@\000\000@@\000\000\000@\000\000@@\000\000\000@\000\000\000@\000\000\000@\000\000@@\000\000@@\000\000\000@\000\000@@\000\000\200?\000\000\000@\000\000\200@\000\000\200?\000\000@@\000\000\000@\000\000@@\000\000\200?\000\000\000@\000\000\000@\000\000\200@\000\000\200?\000\000@@\000\000\000@\000\000@@\000\000\000@\000\000\000@\000\000@@\000\000@@\000\000@@\000\000@@\000\000\000@\000\000@@\000\000@@\000\000@@\000\000\200@\000\000\000@\000\000\000@\000\000\000@\000\000\000@\000\000\000@\000\000\200@\000\000\200?\000\000\240@\000\000\200?\000\000\200?\000\000\340@\000\000\000@\000\000\000@\000\000\200@\000\000\200@\000\000@@\000\000@@\000\000@@\000\000\200?\000\000\200?\000\000\300@\000\000\000@\000\000\000@\000\000@@\000\000\000@\000\000\000@\000\000@@\000\000\020A\000\000\010A\000\000@@\000\000\240@\000\000@@\000\000@@\000\000\200?\000\000\000@\000\000\000\000\000\000\000@\000\000@@\000\000\000@\000\000@@\000\000@@\000\000\000@\000\000@@\000\000\240@\000\000@@\000\000\200@\000\000@@\000\000@@\000\000\200?\000\000@@\000\000@@\000\000\200@\000\000\000@\000\000\240@\000\000@@\000\000\000@\000\000\000@\000\000@@\000\000`@\000\000\000@\000\000\000@\000\000@@\000\000\200?\000\000@@\000\000\000@\000\000\000@\000\000\200?\000\000\000@\000\000\000@\000\000\000@\000\000@@\000\000\200@\000\000\200?\000\000@@\000\000\000A\000\000\000@\000\000@@\000\000\000@\000\000\000@\000\000@@\000\000\200@\000\000@@\000\000\300@\000\000@@\000\000\200@\000\000\000@\000\000@@\000\000\000@\000\000\000@\000\000\240@\000\000\200?\000\000\000@\000\000@@\000\000\000@\000\000\000@\000\000\200?\000\000\000@\000\000@@\000\000\200?\000\000@@\000\000\000@\000\000@@\000\000@@\000\000@@\000\000\000@\000\000\000@\000\000\000@\000\000\200@\000\000\000@\000\000@@\000\000\000@\000\000\000@\000\000@@\000\000\000@\000\000\200?\000\000\000@\000\000@@\000\000\240@\000\000\000@\000\000\000@\000\000\200?\000\000@@\000\000\000@\000\000@@\000\000\300@\000\000\200@\000\000@@\000\000\000@\000\000\000@\000\000@@\000\000@@\000\000\240@\000\000\000@\000\000 @\000\000\000@\000\000\000@\000\000\000@\000\000\240@\000\000\000@\000\000\000@\000\000\000@\000\000\000@\000\000\000A\000\000@@\000\000@@\000\000\300@\000\000@@\000\000\000@\000\000\000@\000\000@@\000\000@@\000\000@@\000\000\000@\000\000@@\000\000\200?\000\000\200?\000\000 @\000\000\000@\000\000\200@\000\000\000@\000\000@@\000\000\000@\000\000@@\000\000\000@\000\000\240@\000\000@@\000\000\300@\000\000@@\000\000\000@\000\000@@\000\000\000@\000\000\000@\000\000@@\000\000\000@\000\000\000@\000\000\000@\000\000\000@\000\000\000@\000\000@@\000\000\000@\000\000@@\000\000\000@\000\000\240@\000\000\240@\000\000@@\000\000\000@\000\000\200@\000\000\000@\000\000@@\000\000\000@\000\000@@\000\000\200?\000\000\000@\000\000\200?\000\000 @\000\000\240@\000\000@@\000\000@@\000\000\200?\000\000@@\000\000\240@\000\000\000@\000\000\000@\000\000\000@\000\000\000@\000\000\000A\000\000@@\000\000\000@\000\000\340@\000\000\200?\000\000\000@\000\000\200@\000\000@@\000\000\000@\000\000\000@\000\000\000@\000\000\000@\000\000\000@\000\000\000@\000\000@@\000\000\000@\000\000\000@\000\000@@\000\000\000@\000\000\200@\000\000\000@\000\000@@\000\000@@\000\000\000@\000\000\240@\000\000\000@\000\000\000@\000\000\000@\000\000\340@\000\000\000@\000\000\000@\000\000\200@\000\000\200@\000\000@@\000\000\000@\000\000\200@\000\000@@\000\000\200?\000\000\200?\000\000\000@\000\000\200?\000\000\000\000\000\000\200@\000\000\000@\000\000@@\000\000\000@\000\000\000@\000\000\000@\000\000\000@\000\000\000@\000\000\000@\000\000@@\000\000\000@\000\000\000@\000\000\000@\000\000\000@\000\000\000@\000\000@@\000\000\000@\000\000\000@\000\000\000@\000\000@@\000\000\000@\000\000@@\000\000\000@\000\000\000@\000\000\000@\000\000@@\000\000\200@\000\000\000@\000\000\000@\000\000\000@\000\000\200?\000\000\000@\000\000\000@\000\000\000@\000\000\000@\000\000\200@\000\000@@\000\000\000@\000\000@@\000\000\200?\000\000@@\000\000\000@\000\000\000@\000\000@@\000\000@@\000\000\000@\000\000\000@\000\000\000@\000\000\000@\000\000\000@\000\000\000@\000\000@@\000\000@@\000\000\240@\000\000\000@\000\000\000@\000\000@@\000\000\000@\000\000\200?\000\000@@\000\000\000@\000\000\000@\000\000\000@\000\000\000@\000\000\000@\000\000\000@\000\000\000@\000\000\200?\000\000\200@\000\000@@\000\000\000@\000\000\300@\000\000@@\000\000@@\000\000\240@\000\000\000@\000\000@@\000\000\240@\000\000@@\000\000@@\000\000\200@\000\000\200?\000\000\000@\000\000\200?\000\000@@\000\000\000@\000\000\200@\000\000\200?\000\000\000@\000\000\200@\000\000\000@\000\000\200@\000\000\000@\000\000@@\000\000@@\000\000\000@\000\000\240@\000\000@@\000\000\200?\000\000\000@\000\000\000@\000\000\200?\000\000\000@\000\000@@\000\000\300@\000\000@@\000\000\020A\000\000 @\000\000@@\000\000\200@\000\000\000@\000\000\000@\000\000@@\000\000@@\000\000\000@\000\000\200?\000\000@@\000\000@@\000\000@@\000\000 @\000\000\000@\000\000\000@\000\000@@\000\000\000@\000\000\300@\000\000@@\000\000\000\000\000\000\200?\000\000\000@\000\000\000@\000\000@@33\203@\000\000\000@\000\000\000@\000\000\000@\000\000\000@\000\000\000@\000\000\000@\000\000\200?\000\000\200?\000\000@@\000\000\200?\000\000\000@\000\000@@\000\000@@\000\000\200?\000\000\000@\000\000\000@\000\000@@\000\000@@\000\000@@\000\000@@\000\000\000@\000\000@@\000\000\000@\000\000\240@\000\000@@\000\000\200@\000\000\000@\000\000@@\000\000\200@\000\000@@\000\000\000@\000\000\000@\000\000\240@\000\000\000@\000\000\000@\000\000\200@\000\000@@\000\000\000@\000\000\000@\000\000\000@\000\000@@\000\000\000@\000\000@@\000\000\000@\000\000\000@\000\000\200?\000\000\200@\000\000\000@\000\000\200?\000\000\200?\000\000\000@\000\000@@\000\000\000@\000\000\000@\000\000@@\000\000\200@\000\000\000@\000\000\200?\000\000\000@\000\000\200?\000\000\000@\000\000\200?\000\000\300@\000\000\240@\000\000@@\000\000\000@\000\000 @\000\000@@\000\000\000@\000\000@@\000\000\000@\000\000@@\000\000\240@\000\000\000@\000\000\000@\000\000\000@\000\000\200@\000\000@@\000\000\000\000\000\000\000@\000\000@@\000\000\000@\000\000@@\000\000\000@\000\000@@\000\000\000@\000\000\000@\000\000\000@\000\000\000@\000\000\000@\000\000@@\000\000\000\000\000\000@@\000\000\000@\000\000\000@\000\000\200?\000\000\200@\000\000\000@\000\000@@\000\000@@\000\000\000@\000\000\000@\000\000\000@\000\000\000@\000\000\000@\000\000\000@\000\000\000@\000\000\300@\000\000\200?\000\000@@\000\000@@\000\000\000@\000\000\000@\000\000@@\000\000@@\000\000\300@\000\000\240@\000\000@@\000\000\200?\000\000@@\000\000\000@\000\000\000@\000\000\200@\000\000\000@\000\000@@\000\000\000@\000\000@@\000\000@@\000\000\200@\000\000@@\000\000@@\000\000@@\000\000\000@\000\000\000@\000\000@@\000\000\000@\000\000\000@\000\000\200?\000\000@@\000\000\200?\000\000\200?\000\000\300?\000\000@@\000\000@@\000\000\000@\000\000\000@\000\000@@\000\000\240@\000\000@@\000\000@@\000\000\000@\000\000\000@\000\000@@\000\000\000@\000\000\200?\000\000@@\000\000@@\000\000\000@\000\000\000@\000\000\000@\000\000@@\000\000\000@\000\000\000@\000\000@@\000\000@@\000\000\000@\000\000\240@\000\000@@\000\000@@\000\000\200?\000\000\200?\000\000@@\000\000\000@\000\000\000@\000\000@@\000\000\300@\000\000@@\000\000\000@\000\000@@\000\000\000@\000\000\200@\000\000\200?\000\000\000@\000\000\300@\000\000@@\000\000\000@\000\000 @\000\000\200?\000\000@@\000\000@@\000\000@@\000\000\000@\000\000@@\000\000\000@\000\000@@\000\000@@\000\000@@\000\000\200@\000\000@@\000\000\200?\000\000\200?\000\000\000@\000\000@@\000\000@@\000\000\000@\000\000@@\000\000@@\000\000\000@\000\000\200@\000\000\200?\000\000\200?\000\000@@\000\000\000@\000\000\000@\000\000\000@\000\000@@\000\000\200@\000\000\000@\000\000\000@\000\000\000@\000\000\000@\000\000\000@\000\000@@\000\000\200?\000\000@@\000\000\000@\000\000@@\000\000\000@\000\000\000@\000\000\000@\000\000\000@\000\000\240@\000\000\000@\000\000\000@\000\000 @\000\000\000@\000\000\000@\000\000\000@\000\000\000@\000\000\000@\000\000@@\000\000@@\000\000@@\000\000\200@\000\000\000@\000\000\000@\000\000\200?\000\000@@\000\000\200@\000\000\200?\000\000\000@\000\000@@\000\000@@\000\000@@\000\000@@\000\000\000@\000\000\000@\000\000\000@\000\000@@\000\000\240@\000\000\240@\000\000\000@\000\000\000@\000\000\000@\000\000\200@\000\000\300@\000\000\200@\000\000\000@\000\000\000@\000\000\000@\000\000@@\000\000@@\000\000\000@\000\000\000@\000\000\000@\000\000\200?\000\000\200?\000\000@@\000\000\000@\000\000\000@\000\000\240@\000\000\000@\000\000\000A\000\000@@\000\000\200@\000\000\240@\000\000@@\000\000\200?\000\000@@\000\000\340@\000\000\000@\000\000\000@\000\000\000@\000\000@@\000\000@@\000\000\000@\000\000\200?\000\000\300@\000\000\000@\000\000\000@\000\000@@\000\000\000@\000\000\000@\000\000\000@\000\000@@\000\000@@\000\000\200?\000\000@@\000\000@@\000\000\000@\000\000@@\000\000\000@\000\000\000@\000\000\000@\000\000@@\000\000@@\000\000\200?\000\000\000@\000\000 @\000\000\200?\000\000@@\000\000@@\000\000@@\000\000\000@\000\000@@\000\000\000@\000\000\200?\000\000\000@\000\000\300@\000\000@@\000\000\200?\000\000\000@\000\000\200@\000\000\200@\000\000\200?\000\000\200@\000\000@@\000\000@@\000\000\000@\000\000@@\000\000\000@\000\000@@\000\000\000@\000\000@@\000\000@@\000\000\200@\000\000@@\000\000@@\000\000@@\000\000\200@\000\000\200?\000\000@@\000\000@@\000\000@@\000\000\000@\000\000@@\000\000\000@\000\000\240@\000\000\000@\000\000\000@\000\000@@\000\000@@\000\000@@"
      }
    }
  }
}
node {
  name: "Const_2"
  op: "Const"
  attr {
    key: "_output_shapes"
    value {
      list {
        shape {
          dim {
            size: 2455
          }
        }
      }
    }
  }
  attr {
    key: "dtype"
    value {
      type: DT_FLOAT
    }
  }
  attr {
    key: "value"
    value {
      tensor {
        dtype: DT_FLOAT
        tensor_shape {
          dim {
            size: 2455
          }
        }
        tensor_content: "\000\340\265D\000@\257D\000\010\243E\000\200\242D\000\200\242D\000\340\235D\000\000\334D\000p\013E\000\340#E\000\300\262D\000 \221D\000\240\363D\000\000\371D\000\000\310D\000\000UD\000\240bE\000\300\240D\000\340=E\000 \361D\000 \357D\000\000\250D\000\200\344D\000\200\272D\000\300\362D\000\000\000\000\000\240]E\000\200\306E\000\300)D\000\360\'E\000\000\310D\000\320\002E\000\000MD\000\350\232E\000\320\034E\000\000\250D\000\000/E\000\340\307D\000\000\217D\000\000LD\000\000rD\000\000zD\000`\237D\000\340\213D\000\300\240D\000\340;E\000\340\306D\000@\201D\000\320CE\000\200\301D\000\200UD\000\000\353D\000@\214D\000 \224D\000@dD\000\000\311D\000@\310D\000 eE\000\240TE\000\000@D\000`\254D\000\200\227D\000`\333E\000@\322D\000\300\363D\000\000RD\000\200{D\000\000\264D\000\000\264D\000\000-E\000\0201E\000\300\212D\000\300\314D\000\000MD\000\200\214D\000\240wE\000\200\317D\000\240\021E\000\010\215E\000\240\003E\000@\'E\000\000\344D\000\340\014E\000\340\035E\000\260\032F\000\200aD\000\300TD\000`\357D\000\000\007E\000@>D\000(\243E\000\000\021E\000@ E\000\340GE\000\000\000\000\000\300\231D\000\300JE\000\200\000E\000\300\215D\000\010\220E\000\300\332D\000\330\221E\000\240\316D\000\200\nE\000\200\tE\000\300vE\000 \245D\000\000\231D\000\240\335D\000(\252E\000\300\302D\000\000\264D\000\200\334D\000\020wE\000\340\225D\000\340\260D\000\000[D\000\020\006E\000\240\270D\0000\003E\000`\352D\000 oE\000@\221D\000\000ZE\000\300\251D\000\200\315D\000`\202D\000@\267D\000\200TE\000@\303D\000\000\252D\000@\334D\000@\254D\000\000\026E\000 \372D\000\240KE\000`\361D\000\3002E\000\240\236D\000\240\364D\000\200\007E\000\000@@\000\000\214D\000\200\tF\000\200>E\000X\301E\000\020\003E\000\000\000\000\000\240\233D\000`\025E\000\340\262D\000\240\214D\000\000\247D\000\300\230D\000\300\244E\000p\017E\000\360\032E\000H\236E\000@\206D\000\000\252D\000 \377D\000\300$E\000\200 E\000\370\304E\000\000\253D\000 \203D\000 \226D\000\000}D\000\000\266D\000`\255D\000p\031E\000\240\276D\000\000nD\000\340\216D\000 \244D\000\300\353D\000\200\223D\000\000OD\000\200\362D\000\000lE\000@\034E\000\200\343D\000\200\343D\000\300(E\000`\305D\000\340\332D\000\320\"E\000\000\300D\000\000<D\000\200\363C\000@\246D\000\240ZE\000\200.E\000\000>E\000 \224D\000@wD\000\000\241D\000\000\202D\000PYE\000\340\231D\000\000\307D\000\220gE\000\300\231D\000@\035E\000`5E\000\240iE\000\300CE\000`\342D\000`\035E\000\000lD\000@\303D\000\300\272D\000\000\002E\000\200\234D\000@\306D\000\340\272D\000\200\302D\0000\213E\000\300\017E\000\260\016E\000\350\225E\000PhE\000`\257D\000@\034E\000@{D\000 \034E\000@\305D\000\200\200E\000\200\275D\000h\346E\000`TE\000\000dD\000\000\274D\000 \374D\000\340\272D\000\220\035E\000\000\314D\000\200\340D\000\000\002D\000\340\002E\000\200\177D\000\300AE\000@\034E\000\000\252D\000\000\226D\000\320\010E\000\200\250C\000\200\003D\000@\267D\000p$E\0000\002E\000\000\367D\000 \270D\000 @E\000\0205E\000\000\264D\000\300\250D\000\240\264D\000\000fD\000\000\'E\000\000\226D\000\240\274D\000\320+E\000 \313D\000@\247D\000P\032E\000\000\355D\000\200\007E\000\000\223D\000\240\200D\000@\300D\000P0E\000\000\273D\000\340\234E\000PwE\000\240\271D\000\000\000\000\000\260\235E\000\300\345D\000\340\211D\000\0006D\000@\003E\000`\003E\000 \243D\000\000\214D\000@\335D\000\000\322D\000\000\224D\000\200\016E\000\360\036E\000\000\334D\000\240\030E\000\300\363D\000\000{D\000P\\E\000`sE\000\300\017D\000\000HD\000 \tE\000\340\014E\000@yD\000\340\372D\000\200mD\000\020\215E\000@\371D\000\300\275D\000@\227D\000\340\304E\000\300\306D\000\000\360D\000\220FE\000\000,E\000\000\257D\000`\216D\000\2006E\000\200\317D\000\000\202D\000\250\203E\00005E\000\000)D\000\340\376D\000\000\271D\000\000aD\000\000\355D\000`?E\000\000\034E\000 \267D\000\260|E\000\000\253D\000\020\203E\000\300\202D\000\200\317D\000@\007E\000\000\340C\000\000\366D\000@\241D\000\200_D\000\000\264D\000\360\035E\000 \016E\000\240\222D\000\200\355D\000\000\310D\000`\206D\000\000\304D\000\020@E\000P\024E\000\320XE\000\340\251D\000\260\027E\000\200QE\000\000zE\000X\203E\000@\211D\000\300TD\000@\317D\000@\001E\000\200\023E\000\240\263D\000 \021E\000@\327D\000\000\302D\000\200\304D\000\200\224D\000\340\341D\000@\201D\000\320\002E\000\340\304D\000\000\310D\000@PD\000\000%E\000\220(E\000\200\357D\000\300mD\000\340\226E\000\000pE\000\340\031E\000p\rE\000\240NE\000 \231D\0000\005E\000\340\003E\000 \004E\000`LE\000\200WD\000pcE\000\300[D\000\240\334D\000\200\211D\000\340tE\000\200\262D\000@lD\000\000]E\000\300yD\000\000\231D\000\000/D\000\300\335D\000PkE\000`0E\000\200\317D\000\240\203D\000\220\216E\000\000\000\000\000@<D\000\200\250D\000\300\256D\000\340\335D\000 AE\000 \214D\000\000\346D\000\300\332D\000\220HE\000@tD\000pnE\000p\035E\000\200}D\000\200\265D\000\300\336D\000\300\264D\000\200\355D\000\300\'E\000\240\330D\000\200\261D\000\300\250D\000\220\010E\000@\361D\000@\025D\000\000:D\000\200\024E\000\300\231D\000 \255D\000\200\210D\000\010\246E\000\200BE\000 \302D\000\3609E\000\000YD\000\200\353D\000\000>E\000\000\360C\000\000HD\000@\241D\000\200\026E\000\200xD\000\000\323D\000\000\242D\000 \211D\000`mE\000@\210D\000\240\225D\000\200\345D\000\340\273D\000@5E\000\340\311D\000\200[E\000\000\373D\0000\034E\000\200\236D\000\300wE\000\000\355D\000\340\231D\000\000RD\000@\225D\000\320?E\000@\204E\000\220<E\000`\210D\000\200\241D\000\030\223E\0000\032E\000\000\372D\000\200\214D\000\000PD\000\200\003E\000 \326D\000P\037E\000\240\271D\000\360%E\000\200\363C\000\220\023E\000\300\376D\000\000bD\000\340\347D\000\300\317D\000\000\264D\000\340\327D\0008\225E\000\360\021E\000\000`D\000\000MD\000\000\264D\000\200@D\000\340\302D\000\2005E\000\000\310D\000\020aE\000\200\207D\000\000aD\000\200\252D\000\000\321D\000 \227D\000`\035E\000\300\226D\000p\274E\000\240\277D\000\000\310D\000\000|D\000@\276D\000\340\270D\000\200SD\000\000\214D\000\340\227D\000\340\014E\000`\210D\000\200\231D\000\340\377D\000\340\363D\000\000\032E\000 \346D\000`\030E\000\340\032E\000\320hE\000\0006E\000\340\330D\000\200\273D\000\260\007E\000\000RD\000\200\201D\000\000\317D\000@fE\000\220AE\000\200\322D\000\200qD\000@\331D\000\300\256D\000@\354D\000\0006D\000\360\017E\000\200\362D\000 \210E\000@\023E\000\000\354D\000P>E\000\000\220D\000\240\001E\000\200\322D\000\000lE\000\000wD\000\000YD\000\300\310D\000\000\346D\000p\025E\000\000\310D\000\000\341D\000\340\245D\000\300.D\000@wD\000\000\224D\000\300\325D\000\300\025E\000\240\231D\000\000\336D\000\200|D\000\220%E\000\260\025E\000\240\317D\000`\341D\000\300[D\000`\256D\000p:E\000 \224D\000\200\253D\000\000\202D\000\000zE\000\200\346D\000`\237D\000\300\241D\000\320\000E\000\240\270D\000\200\211D\000\3606E\000\000lE\000\340*E\000\300\003E\0000+E\000@DE\000\000aD\000\000\347D\000\240\234D\000\360\207E\000\000\205D\000@\265D\000\300\202D\000@\342D\000\200\211D\000\200\266D\000\000pD\000@\nE\000\340\230D\000\300\262D\000\200\340D\000\000RD\000\000\257D\000\000\322D\000\000\253D\000\000*E\000@\333D\000\360*E\000\340\372D\000`\261D\000\020\027E\000\240NE\000\000\226D\000\240\262D\000`\241D\000\000\327D\000 \262D\000`\243D\000\000\211D\000\200\205D\000\320\035E\000`\317D\000\370\260E\000\200\034D\000\000sD\000\300PD\000\240\276D\000\240\241D\0000PE\000\300\250D\000\300\327D\000\000/E\000 aE\0000HE\000\220LE\000\200TD\000\000\240D\000\000\342D\000\000cD\000\210\341E\0008\340E\000`\036E\000\020@E\000\300LD\000\240\225D\000\300YE\000\3207E\0000zE\000\000:D\000\260\014E\000\340\231E\000\300uD\000\020UE\000\300vD\000`\016E\000\200\017E\000\340\303D\000`\034E\000\240\250D\000 YE\000\340\362D\000\200,D\000P\027E\000\200\355E\000p\023E\000\000\257D\000\000\360D\000\220\025E\000 \002E\000@kD\000\300\327D\000\230\371E\000\240\214E\000\2002D\000@\010E\000\000\341D\000\000\367D\000\300}D\000\3007D\000\320\013E\000\020\002E\000\300\017E\000\200\273D\000 \231D\000\000\226E\000 \246D\000\240\252D\000\020\005E\000\020JE\000\300.D\000\000\275D\000`\013E\000\300\253D\000\300\240D\000\300\026E\000H\226E\000@\034E\000\000~D\000 \341D\000\240;E\000phE\000\200\343D\000@\215D\000\200\242D\000`\201D\000`\277D\000\000\030E\000\200\205D\000\000HD\000`bE\000\000\024E\000\000\243D\000\340\357D\000\3003E\000\000\212D\000\200\210D\000 \312D\000\000\032E\000\000\207D\000\000uD\000X\354E\000\300nD\000@)E\000\200\371D\000\240\035E\000\200\335D\000\240QE\000@\262D\000\300\"E\000\000\'E\000\240\214E\000\000\342D\000\250\224E\000\000fD\000 \300D\000\300\017E\000\340\027E\000\200\312D\000\020FE\000\200~D\000\200QE\000`\300D\000p&E\000`\334D\000\000OD\000\300\230D\000\300\301D\000\352\230F\000(\251E\000\200\315D\000\340\214D\000\340\262D\000\000\000\000\000\300\217D\000\360>E\0000\250E\000`\317D\000\340\264E\000\360.E\000@\006E\000\200\367D\000\240\243D\000\000\220D\000\300(D\000\000zE\000\250\220E\000\200\206D\000p\004E\000`\243D\000\000\315D\000\0203E\000 RE\000\0004D\000\300eE\000\200\007E\000`\010E\000\200wD\000\360aE\000\300\325D\000@\021E\000\200\303D\000\300\003D\000\000\273D\000\200@D\000\300UD\000\200 E\000\200\345D\000\0001D\000\000\357D\000\200kD\000`\201D\000 \355D\000\000\314D\000\000\013E\000\000tD\000@=E\000@\315D\000\200\327C\000 \263D\000\020\020E\000\000>D\000\300\"D\000@\274D\000\340\227D\000@\240D\000\2604E\000\300\201D\000\340\005E\000\220\024E\000\000\034D\000\000\212D\000@\255D\000\240\265D\000\360AE\000\200\266D\000\000\342D\000\000\220D\000@hD\000@\270D\000\320\302E\000\320\'E\000\000\204D\000\200\257D\000\240\300D\000\200\326D\000\360\033E\000 \352D\000\300\212D\000 \217D\000\300\\D\000 \206D\000\000\267D\000\000\250D\000\000pD\000\200\337D\000\340\235D\000\300\303D\000\310\310E\000@!E\000PhE\000`\003E\000\340\220D\000\260\236E\000`\001E\000P\022E\0000GE\000P\201E\000`\rE\000\300\265D\000\000\242D\000\000\014D\000\330\244E\000\330\215E\000\000\310D\000\200\253D\000\320<E\000\000vD\000\000\251D\000\340\"E\000@8E\000\020\tE\000@\233D\000@\010E\000\240\242D\000\200\023E\000\200\253D\000\300(E\000@\001E\000\000\320D\000\020!E\000\300\262D\000\340\225D\000 RE\000\200\003E\000\300\375D\000\300\200D\000\200fD\000\000\200D\000\000\262D\000\200\370D\000\340cE\000\200\254D\000`\322D\000\000\250D\000\000/E\0000!E\000\300\361D\000`=E\000\260ME\000\000ZD\000p\013E\000\220gE\000@tD\000\200\251D\000\200\025E\000\200\"E\000\2209E\000`6E\000\300KE\000\240\276E\000\300\365D\000\200\177D\000 \332D\000\340\234D\000\240\304D\000\000\'D\000\000\330D\000\250\224E\000\360BE\00009E\000\000\256D\000\000\264D\000\300\207D\000pYE\000`\310D\000\340\302D\000`1E\000@5E\000`\355D\000\000\252D\00002E\000\200\211D\000\300\306D\000\240\272D\000\300\242D\000\000(E\000`\270D\000 \257D\000\000\013E\000\300$E\000\300\201D\000PRE\000\340\320D\000\240\266D\000\300,D\000\000aD\0000oE\000\000wD\000\000\216D\000\300,D\000@\252D\000\340\262D\000`uE\000\200\324D\000\0207E\000`\310D\000\200\355D\000@ND\000\000jD\000@\224D\000\000\317C\000\200^D\000\240\365D\000`\224D\000 +E\000\340\222D\000`[E\000\320!E\000`\321D\000\000\273D\000@\327D\000`\004E\000\000\021E\000@\004E\000@\233D\000\260!E\000\200\343D\000\000pD\000 \016E\000\0006E\000\300\203D\000\000.D\000\000\250D\000P?E\000\300\304D\000\200\333D\000\000\262D\000@\033E\000\000\245D\000\300\214D\000 pE\000@5D\000\300\265D\000\220\224E\000\240\303D\000\300\377D\000\300WD\000 cE\000\2603E\000\300\016D\000\000\303D\000\340\361D\000\000\277D\000\320 E\000\200\273D\000\020GE\000\000\207D\000\000/E\000\000\tE\000@\224D\000\000\241D\000@]D\000\300\207D\000\000`D\000\000\242D\000 \222D\000\000\372D\000\000\271D\000\200\262D\000\240\374D\000\300\031E\000@rD\000@#D\000\200xD\000\000|D\000\230\230E\000`\211E\000\000aD\000\360\\E\000@\265D\000\000\231D\000\000\256D\000\300\010E\000\000\202D\0008\263E\000\300\322D\000\330\243E\000\000\020D\000\000\360D\000\000\275D\000@\255D\000\000\355D\000\200\250D\000 \346D\000H\224E\000\000/D\000\300LE\000\300\356D\000\200\tE\000\220\nE\000\000\272D\000pxE\000\250,F\000\340\352D\000\000\374C\000\000\344D\000\240\214D\000`3E\000\200\371D\000P\301E\000\000\231D\000\360\\E\000@\360D\000\300\274D\000\300;E\000\220\220E\000\200@E\000p\001E\000 \276D\000\200\rE\000@\203E\000`\343D\000\020\016E\000\220&E\000\240\313D\000\200;E\000`\016E\000\200\324D\000`\037E\000\000\332D\000\000FD\000 \350D\000\000\214D\000@lD\000p\252E\000@NE\000\220\nE\000@BE\000`\357D\000\000TD\000\200\271D\000\200\326D\000\000\304D\000\200\250D\000\320\023E\000\000\275C\000\300\221D\000 \200D\000\000\214D\000p\003E\000`\306D\000@\317D\000\000\231D\000\300\371D\000\200\230D\000\240\247D\000\320RE\000\200\251D\000\000\214D\000\2603F\000@\032E\000`\310D\000\300\374D\000\300QE\000`%E\000 \320D\000\340\336D\000@\224D\000\320\036E\000\200\267D\000\240\244D\000\240\000E\000`\274D\000\240\232D\000`\034E\000\360\034E\000\240\352D\000`\321D\000x\215E\000\360\017E\000\200tD\000\200\236D\000\240.E\000\200\"D\000\200\322D\000\000\346D\000\200\225D\000\200YE\000 \244D\000\200\nE\000@\234D\000\200\310D\000\300\274D\000 \025F\000\300\224D\000\020&E\000@\231D\000\000\212D\000@\034E\000\240\240E\000@\222D\000\000\003E\000`\"E\000`/E\000\220IE\000\000\223D\000\240\024E\000`\237D\000 \271D\000`\335D\000\220\014E\000\300\265D\000`.E\000\300\364D\000 \313D\000\260\030E\000p=E\000\000pD\000`\240D\000@\020E\000\220\013E\000\200\nD\000\260\031E\000\200CE\000\300ID\000\000\240D\000\300\201D\000\000\263D\000\000XD\00007E\000\000pD\000`\266D\000\340\272D\000 \245D\000\000\341D\000(\251E\000\200hD\000\300\214D\000\340FE\000\000\004E\000\250\216E\000`\366D\000\000\347D\000\000\310D\000\240\237D\000\000\000\000\000\340HE\000P\003E\000\000\226D\000\020hE\000\000\322D\000\260\327E\000\260\027E\000\340\036E\000\000zD\000\000\014D\000\300HE\000\200\245D\000\000\010D\000\340\022E\000\000\202D\000\020oE\000\200\362D\000\260\001E\000\234\025F\000\200\227D\000\360\034E\000\300\320D\000\340\010E\000@sD\000@\230D\000@\003E\000\000\204D\000`\262D\000\300\031E\000\240\037E\000\340!E\000\200\035E\000\200\316D\000\340\270D\000 \370D\000\200\211D\000\240\273D\000\240\255D\000\340\335D\000@XE\000\200\273D\000`\334D\000\000\257D\000\360\021E\0000WE\000\300\341D\000\000eD\000p\033E\000\300\233D\000`\250D\000@\307D\000@{D\000\340\232D\000\240\001E\000\000\301D\000\340\335D\000\000\273D\000 \263D\000\340\226D\000\000\000\000\000\000\225D\000`6E\000\200\247D\000\200;D\000\000\026D\000`\014E\000\000\026E\000\340\365D\000\340\005E\000\200pD\000\000\206D\000@\024E\000\340\222D\000\000|D\000\000QD\000@\373D\000\260zE\000\240%E\000\300\220D\000`\253D\000\200>E\000\260RE\000 \217D\000\200\336D\000\300\307D\000 JE\000\200\211E\000p,E\000\200(E\000 \274D\000 \032E\000\000zD\000\240>E\000\200\360D\000\200\273D\000\200\242D\000\000\257D\000\300xD\000\200\324D\000\240AE\000\300\357D\000\000VD\000\300(E\000\000\250D\000@+E\000\200\335D\000@\034E\000@\022E\000\0005D\000 \004E\000\200\212D\000\200\271D\000\200;D\000\000CD\000`fE\000\000\234D\000\000\234D\000\240\025E\000@\313D\000\000\226D\000\200PD\000@\344D\000\200\370D\000 \251D\000\000\253D\000\240LE\000@\211D\000\240\000E\000\340\251D\000\260tE\000P\rE\000\340<E\000\340\334D\000@\233D\000H\224E\000\240\264D\000\300\262D\000\000\361D\000\200\242D\000\300(E\000@~D\000`9E\000\300\355D\000\000xD\000\030\340E\000\000TD\000\000\341D\000\200\205D\000\300\215D\000\200\365D\000\000\"D\000\260gE\000\000\264D\000\020:E\000\3200E\000\0004E\000P\000E\000@\255D\000\220-E\000\000\341D\000\200\204D\000\250\262E\000\200\271D\000\0004D\000 \374D\000\000\226D\000\200\342D\000`\275D\000\000\330D\000\300\247D\000\000PD\000\000\251D\000\200\327D\000@\312D\000\200dD\000\300\327D\000\200\263D\000\000\275D\000\000\264D\000\300\250D\000\200\255D\000 \307D\000\020tE\000 \320D\000\240\257D\000 \210E\000\000\264D\000`2E\000 \367D\000\260\001E\000\340\335D\000@\271D\000\300UD\000\340\361D\000\200TD\000\340\375D\000`zE\000\000\226D\000\260*E\000\240\242D\000\000wD\000@\003E\000`JE\000@~D\000\300\317D\000\000\202D\000 \231D\000p$E\000\340\332D\000\000\000\000\000\000\344D\000@1E\000 \243D\000 \322D\000\240\201D\000p\004E\000\000\000E\000\300HE\0000\017E\000\230\263E\000\200\373D\000\300\201D\000\340*E\000\200fD\000\000hD\0000\206E\000\3007E\000\000\227D\000\200]E\000`\243D\000x\254E\000\000\000\000\000\200\266D\000\240\362D\000\000pD\000\200\242D\000\300\321D\000\200\373C\000\340\267D\000\300\"E\000\200\350D\000\340\242D\000\000\241D\000\0007E\000\340\341D\000\220(E\000\240\364D\000\300`E\000 \333D\000\300\360D\000\000\264D\000 UE\000\200\321D\000\200,E\000@\225D\000\200{D\000\200kD\000\300\363D\000\000\323D\000\2004E\000@\222D\000\200JE\000\240\376D\000\340AE\000 \252D\000P<E\000\000\207D\000\200\355E\000\340\277D\000\000\313D\000\200TD\000\200mD\000\000\300D\000\210\271E\000\000\023D\000\000HD\000\000\253D\0000JE\000 $E\000\000\007E\000\000\030E\000\000\000\000\000\340\246D\000\320\035E\000@`E\000\000\241D\000@\220D\000\000\273D\000@\250D\000`,E\000@\022D\000\360\023E\000\0004D\000\240\002E\000\300\000E\000\364\021F\000\340\333D\000\300\230D\000\320-E\000\000\220D\000PQE\000`\246D\000\020\037E\000\220\014E\0000\201E\000\200\351D\000\000\206D\000\000\313D\000\2602E\000\000\253D\000@\014E\000\240\250D\000 \347D\000\300\203D\000\000>D\000\000\243C\000 \301D\000\000\253D\000\340\306D\000 \271D\000\000\272D\000\000\372D\000\200\331D\000\200\221D\000\340\346D\000 \205E\000\240wE\000\360\030E\000@\360D\000\200\330D\000\300\250D\000\300\361D\000\000\207D\000\300\362D\000\000jD\000\000\341D\000\240\327D\000@/E\000\300}D\000\200}D\000\340\353D\000 \214D\000\200\251D\000`\202D\000\240\026E\000@\335D\000`\210D\000\200VD\000\020!E\000\200\365D\000\200\264D\000\000\243D\000\000\222D\000@\243D\000\250\201E\000\200|D\000\000\250D\000\020!E\000\340\353D\000\000\226D\000\340RE\000\000\026F\000\340\321D\000\200\235D\000@\205D\000\000jD\000\340\234E\000\200\242E\000\000\341D\000\300\211D\000\300lE\000 ;E\000\340\216D\000@BD\000\240\337D\000\300\264D\000\000\037D\000@\225D\000\200\203D\000\000\241D\000\000<E\000\000\341G\000\000\303D\0000.E\000\200\\D\000\300vE\000@\034F\000\2203E\000\200\'E\000\000zD\000\000\376D\000@\327D\000@\257D\000\300\230D\000\300\306D\000\320\004E\000\200#D\000\000oD\000\260\301E\000@\210D\000\000\204D\000\300\332D\000\200\002E\0000\210E\000\240\226E\000@\374D\000\000RD\000\200\356D\000 \340D\000P\037E\000P.E\000\340\225D\000\020\007E\000P\006E\000\200\261D\000@\246D\000\220\277E\000\000\226D\000\240\014E\000@\223D\000\000\277D\000\240\324D\000\000\241D\000@\246D\000\340\222E\000\300\017E\000\000\372D\000\300\276D\000\340\235D\000\240\341D\000\340\002E\000\200\030D\000\240>E\000\300\247D\000\200\242D\000\000SE\000`\316D\000\000\365D\000\000\347D\000\000\261D\000\360\007E\000 HE\000\300\277D\000\340\311D\000@\346D\000\020\010E\000\000\220D\000\200.E\000\000\270D\000\000\220E\000 qE\000 \365D\000\2602E\000\300\211D\000\300\344D\000\2004E\000\320HE\000p?E\000\240\366D\000\000HE\000\200\227E\000@\233D\000\000\310D\000\300ED\000\300\233D\000h\221E\000\240\327D\000\240\322D\000`JE\000\200!E\000\300\360D\000\020\307E\000\000\200?\000`\006E\000\300\253D\000\200(D\000`\204D\000\340\023E\000\200\352D\000@\200D\000 \332D\000`\345D\000\310\223E\000 \364D\000\300\263D\000@\235D\000\230\220E\000@\016E\000 \223D\000\000\306D\000\000\231D\000\000\215D\000\320JE\000`\232D\000\320#E\000`\355D\000\200\177D\000\000vD\000\260\035E\000\340\007E\000\240\202D\000 .E\000\0000D\000\200\227D\000\300\355D\000@\030D\000\360\016E\000\340\203D\000\240 E\000\000\023D\000 \225D\000\000OD\000\240iE\000\000\374C\000\360\006E\000\300\035E\000`\324D\000\000zD\000\000HD\000\300#E\000 \016E\000`\030E\000 \025E\000`\277D\000\000aE\000@\315D\000\200<E\000\300\tE\000p\022E\000\240\225D\000\000\341D\000`\353D\000@\330D\000@\034E\000\000\300C\000 \210E\000\000QD\000\000\000\000\000h\243E\000\240\276D\000\200hD\000P!E\000 \005E\000 #E\000@\315D\000 #E\000\240\211D\000\200#D\000\300\253E\000\000\264D\000\000\320D\000\300\332D\000\340\222D\000\000\200D\000\360\204E\000p\nF\000@\215E\000\320\035E\000@\234E\000 \037E\000p\034E\000\000oD\000\000\205D\000\000\224C\000\200\204D\000\300\346D\000 \356D\000\000\016E\000\000\325D\000\200\231D\000@\210D\000h\262E\000\220<E\000\340BE\0000\013E\000\340\337D\000\000QD\000 \217D\000\340\021E\000P\035E\000\200\205D\000@\217E\000 \030E\000\240\313D\000\240\277D\000\340\034E\000\300nE\000\000\233D\000\000\202D\000\200\003E\000\300)D\000`\367D\000\000\311D\000\340\302D\000\300\010D\000\000\260D\000\340\312D\000\000\264D\000\000\303D\000\340\351D\000@#D\000\000\372D\0004xF\000\200\217D\000\000\244D\000@\310D\000\000/E\000\000\320D\000\240\360D\000@\305D\000\020$F\0000SE\000\020eE\000@{D\000\200\326D\000\200\323D\000\000\226D\000\300\036E\000\000\023D\000 \205D\000\000\004E\000\200\200D\000\240\267D\000\0004D\000@fD\000\340\026E\000\000*D\000\220\010E\000@\241D\000\000\360D\000\200\355D\000\240\002E\000\000\010E\000\000\253D\000\000\310D\000\320NE\000\300\356D\000\240\317D\000\340\367D\000`\256D\000\260#E\000\360>E\000\300aD\000\000\201D\000\000\013E\000\200\242E\000\000>D\000\300\223D\000@\020D\000\300\323D\000\240\354D\000\200\313D\000\240\241E\000pME\000\300\264D\000@\266D\000\200tD\000@\326D\000\300\276D\0000FE\000\200\201D\000\340\361D\000`\263D\000\000\242D\000\000\275D\000\340\177E\000 \227D\000@\025E\000@\373D\000\340\217D\000`\352E\000\200\023E\000\320%E\000\370\205E\000\020@E\000\000\234D\000@\306D\000\000\241D\000\020\013E\000\200\302D\000@\265D\000\260\013E\000\000]D\000\000\002D\000\000\026E\000\000\201D\000\200bE\000\000\243D\000@\327D\000\240\031E\000\000\226D\000@6D\000 \241E\000\240\324D\000`\355E\000P\036E\000@\262D\000\020HE\000@\234D\000`\203D\0000\032E\000\300{D\000 \325D\000\300_D\000\000\226D\000\000\374D\000\000\026E\000 \303D\000@\307D\000\000\232D\0000RE\000\000\254E\000\000\372D\000\000zD\000\340\nE\000\000kD\000\340\346D\000\000\354D\000\0007E\000\300QD\000`\240D\000\000wD\000\000/E\000\370\273E\000\3608E\000 \275D\000\300\036D\000\320\001E\000\300AE\000@\315D\000\000\322D\000\200\277D\000@\346D\000\370\017F\000\200\260D\000\000\250D\000\220\244E\000@\003D\000@\211D\000\300eE\000\000\366D\000\240\271D\000\000\372D\000\200\257D\000\000\201D\000`\313D\000`\252D\000 \315D\000\300\261D\000\000dD\000P&E\000`\263D\000 9E\000\000\264D\000\240\255D\000\300\363D\000\200\257D\000`NE\000\000\224D\000\200\234D\000\000\257D\000\224\002F\000@\242D\000\000\256D\000\300\034E\000 CE\000\200\246D\000\000\226D\000 >E\000\000\367D\000\000(D\000\000(D\000`\235D\000@\005D\000\000\000\000\000p;E\000\240\016E\000@dE\000\000\204D\000`\305D\000\200iD\000`\236D\000\000aD\000`\304D\000\300\326D\000\300\310D\000\000zD\000\300\224D\000\360\034E\000\200\253D\000\2008E\000\000\334D\000\300\325D\000 \362D\000\020\020E\000`\346D\000P\"E\000\000\263D\000\240\247D\000\000\375D\000\000\263D\000\260FE\000\200\246D\000\200\245D\000\200\232D\000\300pD\000@\342D\000\000}D\000\200qD\000\000\205D\000\000pE\000\300`E\000\340\366D\000\240\363D\000\200\312C\000\340\003E\000@\246D\000@\222D\000\0008E\000\000\"E\000\000\300D\000\300fD\000@\237D\000\300\224D\000\300\332D\000\300\250D\000\260\004E\000\340\257D\000\340sE\000\340\223D\000\200\331D\000 \362D\000\000\214D\000\000bD\000\240OE\000`\221D\000\240\361D\000\000\237D\000\000\240D\000 \230D\000\300\230D\000@ID\000`\205D\000\220dE\0000\013E\000`\216D\000(\360E\000\300\367D\000 \236D\000\240\214E\000@\260D\000\300\255D\000p\206E\000P8E\000 \313D\000\020\032E\000\000ND\000@\231D\000\000\\C\000\300\313D\000\200MD\000`\302D\000\200\211D\000\340\271D\000\300OE\000\260\003E\000\310\220E\000\200\264D\000\360&E\000\360\017E\000\200\022E\000\320\303E\000`\235D\000\2005D\000\000\316D\000\300oD\000\200}D\000\000pD\000\300\363D\000p\240E\000\200\304D\0000\023F\000\000\020E\000\260&E\000\000\310D\000\000\224D\000@~D\000\200\223D\000@\262D\000\000`D\000\300\241D\000\340NE\000\340\360D\000\340\233D\000`\356D\000\200\273D\000\300\230D\000\200\tE\000\000`D\000\300\351E\000\200\324D\000\000\000\000\000\000>D\000\000\304D\000\200\221D\000\000/E\000 \207E\000\200oD\000 \224D\000\300\254D\000@\373D\000@\220D\000 \250D\000\300\214D\000@ID\000\0002E\000\0004D\000\340\330D\000\320&E\000\240\312D\000\000aD\000\300\203D\000\200\210D\000 9E\000`\316D\000\340\'E\000\340\302D\000@\253D\000\360\026E\000\200\200D\000\250\316E\000\020\'E\000\340SE\000@\370D\000\260RE\000PYE\000\300\333D\000@YD\000`\345D\000X\203E\000\000\300D\000\000\221D\000 _E\000 \002E\000\300\231D\000\000\267D\000\240\302D\000\000\300D\000\300\342D\000`\310D\000@\243D\000\000PD\000\000\276D\000\300\366D\000\000\307D\000\300ND\000@ID\000\000\242D\000 \006E\000@\207D\000\000\211D\000@\237D\000\200;E\000 \274D\000\300/D\000\240\343D\000@2D\000\300\213D\000\200HD\000H\215E\000\320\\E\000\260\007E\000`\260D\000\300\027E\000\000\273D\000@6D\000\240DE\000\000\214D\000\300\020E\000PCE\000\240\236D\000\300\202D\000\300\215D\000`fE\000\360\023E\000\000\000\000\000 \214D\000\240\255D\000\000\306D\000 HE\000\300\217D\000\000\273D\000@\252D\000\000\264D\000\360\026E\000\300\205D\000\000\245D\000\000QE\000\000\000\000\000@\372D\000\240\247D\000\000\276D\000\300&D\000\220hE\000\200\000E\000\000*E\000`\353D\000\300\370D\000 \263D\000\200\273D\000\340\206D\000@\253D\000\000\231D\000`\330D\000\354\016F\000\000PD\000 iE\000\300\333D\000@\243D\000@\273D\000\240\375D\000\200\003E\000\210\232E\000\360gE\000@\235D\000\000RD\000`\356D\000\240\202D\000 \244D\000 YE\000@\300D\000@\007E\000\240\263D\000p4E\000\300\032E\000\320\021E\000\200\347D\000\000\310D\000\220EE\000\340\210D\000\000\202D\0000(E\000\000\240D\000\200\217D\000\000CD\000`\216D\000\300\236D\000\300ND\000`\220D\000\000\263D\000 \317D\000\000\262D\000\000\231D\000\200\322D\000\330\216E\000\000\275D\000\200\"E\000\000\323D\000\000\221D\000\360+E\000\340\222D\000\300ED\000\200&E\000\020\020E\000\000pD\000\200jD\000\000\250D\000\000\007E\000\000\213D\000\000\245D\000\340\342D\000\260&E\000@\266D\000\020GE\000\000\000\000\000\020\016E\000\300qD\000\200RD\000\300\376D\000\000\250D\000\000TD\000p\013E\000\000lE\000\340\363D\000@\302D\000\000\252D\000\240\323D\000@*E\000\300ND\000`\253D\000\020\275E\000`\330D\000\200qD\000\340\245D\000@BD\000`BE\000`\333D\000P\002E\000\240\267D\000\2605E\000\000\231D\000@(E\000\200\014E\0000\006E\000\000aE\000@\034E\000\000\346C\000\300\211D\000\260\000E\000\200\024E\000\340\034E\000\340\216D\000\000\341D\000\200\253D\000@\316D\000h\200E\000\000>D\000\000@D\000\2409E\000 \251D\000\000\220D\000\300zD\000\200\273D\000\020\035E\000\000\277D\000 \251D\000\000\322D\000\000\266D\000\000\210D\000\340AE\000@#D\000\300\302D\000`\333D\000\200\324D\000\000\210D\000\000\000\000\000\340\333D\000\000\007E\000\360nE\000\000\313D\000\300\230D\000@\235D\000`\243D\000 \004E\000\000\336D\000\300\341D\000\000\202D\000\340\022E\000\300\247D\000 \004E\000 3E\000\000\250D\000`\366D\000\0009D\000 \202D\000\320JE\000\000\211D\000\000\200?\000 \350D\000\320\nE\000@\255D\000`)E\000@\316D\000\000\001E\000\200\225D\000\340\016E\000 SE\000\320\232E\000\200\177D\000\000\251D\000\000\257D\000\000HE\000h\332E\000\3608E\000\240\263D\000 \277D\000\000\213D\000\340\356D\000\360\'E\000\200\222D\000\000\253D\000\240\331D\000\200&D\000@\034D\000@\346D\000\300\332D\000@\245D\000\270\206E\000 \344D\000\220wF\000\260\006E\000\200!E\000\260jE\000@\006E\000\000<D\000\000\252D\000`\321E\000\200\246D\000 \346D\000\000\310D\000\300\230D\0000GE\000\240\350D\000\200_D\000\260\232E\000\000\315D\000\000pD\000\200\010E\000\300\234D\000@\210D\000@\370D\000\200\"E\000\240BE\000\200\"D\000@\000E\000\300\241D\000\300\221D\000\300\274D\000\200\351D\000\000\264D\000`\374D\000\240WE\000\000\024E\000\000DD\000\260\006E\000@\006E\000@\217D\000\300\354D\000@\004E\000\320\025E\000@\304D\000\200\342D\000\220\022E\000\000[D\000\200hD\000\270\347E\000\200\"E\000\000`D\000\340\013E\000\000\321D\000PkE\000@5D\000`ZE\000\2001E\000\300\346D\000@qD\000\000\000\000\000\200}D\000 \375D\000 \242D\000@\351D\000\340\261D\000\300?E\000@\315D\000@\363D\0000#E\000\000\036E\000\200+D\000\240*E\000\200\211D\000\2407E\000\200\204D\000\000\374D\000\000\206D\000\200|E\000\200\270D\000@\275D\000 \340D\000\000/E\000 \211D"
      }
    }
  }
}
node {
  name: "SparseTensor/indices"
  op: "Const"
  attr {
    key: "_output_shapes"
    value {
      list {
        shape {
          dim {
            size: 2455
          }
          dim {
            size: 2
          }
        }
      }
    }
  }
  attr {
    key: "dtype"
    value {
      type: DT_INT64
    }
  }
  attr {
    key: "value"
    value {
      tensor {
        dtype: DT_INT64
        tensor_shape {
          dim {
            size: 2455
          }
          dim {
            size: 2
          }
        }
